{
  "version": "1.0",
  "truncation": null,
  "padding": null,
  "added_tokens": [
    {
      "id": 0,
      "content": "<|pad|>",
      "single_word": false,
      "lstrip": false,
      "rstrip": false,
      "normalized": false,
      "special": true
    },
    {
      "id": 1,
      "content": "<|bos|>",
      "single_word": false,
      "lstrip": false,
      "rstrip": false,
      "normalized": false,
      "special": true
    },
    {
      "id": 2,
      "content": "<|eos|>",
      "single_word": false,
      "lstrip": false,
      "rstrip": false,
      "normalized": false,
      "special": true
    },
    {
      "id": 3,
      "content": "<|unk|>",
      "single_word": false,
      "lstrip": false,
      "rstrip": false,
      "normalized": false,
      "special": true
    },
    {
      "id": 4,
      "content": "<|input|>",
      "single_word": false,
      "lstrip": false,
      "rstrip": false,
      "normalized": false,
      "special": true
    },
    {
      "id": 5,
      "content": "<|output|>",
      "single_word": false,
      "lstrip": false,
      "rstrip": false,
      "normalized": false,
      "special": true
    },
    {
      "id": 6,
      "content": "<|thought|>",
      "single_word": false,
      "lstrip": false,
      "rstrip": false,
      "normalized": false,
      "special": true
    },
    {
      "id": 7,
      "content": "<|atoms|>",
      "single_word": false,
      "lstrip": false,
      "rstrip": false,
      "normalized": false,
      "special": true
    },
    {
      "id": 8,
      "content": "<|connectors|>",
      "single_word": false,
      "lstrip": false,
      "rstrip": false,
      "normalized": false,
      "special": true
    },
    {
      "id": 9,
      "content": "<|formula|>",
      "single_word": false,
      "lstrip": false,
      "rstrip": false,
      "normalized": false,
      "special": true
    }
  ],
  "normalizer": {
    "type": "NFC"
  },
  "pre_tokenizer": {
    "type": "ByteLevel",
    "add_prefix_space": false,
    "trim_offsets": true,
    "use_regex": true
  },
  "post_processor": {
    "type": "ByteLevel",
    "add_prefix_space": true,
    "trim_offsets": true,
    "use_regex": true
  },
  "decoder": {
    "type": "ByteLevel",
    "add_prefix_space": true,
    "trim_offsets": true,
    "use_regex": true
  },
  "model": {
    "type": "BPE",
    "dropout": null,
    "unk_token": "<|unk|>",
    "continuing_subword_prefix": null,
    "end_of_word_suffix": null,
    "fuse_unk": false,
    "byte_fallback": false,
    "ignore_merges": false,
    "vocab": {
      "<|pad|>": 0,
      "<|bos|>": 1,
      "<|eos|>": 2,
      "<|unk|>": 3,
      "<|input|>": 4,
      "<|output|>": 5,
      "<|thought|>": 6,
      "<|atoms|>": 7,
      "<|connectors|>": 8,
      "<|formula|>": 9,
      "!": 10,
      "\"": 11,
      "#": 12,
      "$": 13,
      "%": 14,
      "&": 15,
      "'": 16,
      "(": 17,
      ")": 18,
      "*": 19,
      "+": 20,
      ",": 21,
      "-": 22,
      ".": 23,
      "/": 24,
      "0": 25,
      "1": 26,
      "2": 27,
      "3": 28,
      "4": 29,
      "5": 30,
      "6": 31,
      "7": 32,
      "8": 33,
      "9": 34,
      ":": 35,
      ";": 36,
      "<": 37,
      "=": 38,
      ">": 39,
      "?": 40,
      "@": 41,
      "A": 42,
      "B": 43,
      "C": 44,
      "D": 45,
      "E": 46,
      "F": 47,
      "G": 48,
      "H": 49,
      "I": 50,
      "J": 51,
      "K": 52,
      "L": 53,
      "M": 54,
      "N": 55,
      "O": 56,
      "P": 57,
      "Q": 58,
      "R": 59,
      "S": 60,
      "T": 61,
      "U": 62,
      "V": 63,
      "W": 64,
      "X": 65,
      "Y": 66,
      "Z": 67,
      "[": 68,
      "]": 69,
      "^": 70,
      "_": 71,
      "a": 72,
      "b": 73,
      "c": 74,
      "d": 75,
      "e": 76,
      "f": 77,
      "g": 78,
      "h": 79,
      "i": 80,
      "j": 81,
      "k": 82,
      "l": 83,
      "m": 84,
      "n": 85,
      "o": 86,
      "p": 87,
      "q": 88,
      "r": 89,
      "s": 90,
      "t": 91,
      "u": 92,
      "v": 93,
      "w": 94,
      "x": 95,
      "y": 96,
      "z": 97,
      "{": 98,
      "|": 99,
      "}": 100,
      "~": 101,
      "¡": 102,
      "¢": 103,
      "¤": 104,
      "¥": 105,
      "§": 106,
      "¨": 107,
      "©": 108,
      "ª": 109,
      "¬": 110,
      "°": 111,
      "±": 112,
      "³": 113,
      "º": 114,
      "¼": 115,
      "¿": 116,
      "Â": 117,
      "Ã": 118,
      "Ï": 119,
      "â": 120,
      "Ċ": 121,
      "č": 122,
      "Ġ": 123,
      "Ģ": 124,
      "ģ": 125,
      "Ĥ": 126,
      "ĥ": 127,
      "Ĩ": 128,
      "ĩ": 129,
      "Ī": 130,
      "ī": 131,
      "Ĭ": 132,
      "į": 133,
      "Ĳ": 134,
      "Ĵ": 135,
      "ĵ": 136,
      "Ķ": 137,
      "ķ": 138,
      "Ĺ": 139,
      "ļ": 140,
      "ł": 141,
      "Ń": 142,
      "Ġe": 143,
      "Ġs": 144,
      "ci": 145,
      "de": 146,
      "Ġc": 147,
      "on": 148,
      "Ġâ": 149,
      "Ġp": 150,
      "la": 151,
      "Ã³": 152,
      "nt": 153,
      "Ġes": 154,
      "ar": 155,
      "er": 156,
      "es": 157,
      "Ġ(": 158,
      "Ġa": 159,
      "Ġde": 160,
      "un": 161,
      "ĠâĪ": 162,
      "os": 163,
      "ue": 164,
      "Ġq": 165,
      "Ã³n": 166,
      "Ġ'": 167,
      "ic": 168,
      "ciÃ³n": 169,
      "Ġla": 170,
      "Ġcon": 171,
      "ĠâĪ§": 172,
      "in": 173,
      "al": 174,
      "Ġr": 175,
      "do": 176,
      "Ġque": 177,
      "Ġel": 178,
      "Ġt": 179,
      "Ġun": 180,
      "en": 181,
      "ica": 182,
      "di": 183,
      "or": 184,
      "Ã¡": 185,
      "ta": 186,
      "Ġse": 187,
      "ec": 188,
      "Ġn": 189,
      "da": 190,
      "ĠâĨ": 191,
      "Ġy": 192,
      "Â¬": 193,
      "ra": 194,
      "Ġsi": 195,
      "Ġm": 196,
      "mp": 197,
      "ent": 198,
      "to": 199,
      "Ġpr": 200,
      "Ġen": 201,
      "ĠâĨĴ": 202,
      "Ġf": 203,
      "Ġuna": 204,
      "Ġl": 205,
      "Ġv": 206,
      "mpl": 207,
      "ĠÂ¬": 208,
      "cion": 209,
      "Ġco": 210,
      ").": 211,
      "Ġpar": 212,
      "Ġi": 213,
      "<|": 214,
      "|>": 215,
      "Ġcondi": 216,
      "ente": 217,
      "te": 218,
      "ĠE": 219,
      "Ġest": 220,
      "Ġno": 221,
      "mo": 222,
      "Ġu": 223,
      "Ġo": 224,
      "ĠâĪ¨": 225,
      "ĠL": 226,
      "Ġre": 227,
      "ti": 228,
      "as": 229,
      "ado": 230,
      "an": 231,
      "ari": 232,
      "Ġb": 233,
      "ciones": 234,
      "re": 235,
      "lo": 236,
      "Ġpro": 237,
      "ĠLa": 238,
      "Ġh": 239,
      "'.": 240,
      "Ġent": 241,
      "ces": 242,
      "Ġin": 243,
      "si": 244,
      "Ã©": 245,
      "ÃŃ": 246,
      "..": 247,
      "ĠA": 248,
      "Ġex": 249,
      "ula": 250,
      "ro": 251,
      "mente": 252,
      "unciÃ³n": 253,
      "))": 254,
      "ero": 255,
      "osi": 256,
      "Ġcomo": 257,
      "onces": 258,
      "Ġimpl": 259,
      "',": 260,
      "if": 261,
      "ĠcondiciÃ³n": 262,
      "Ġcu": 263,
      "ĠEs": 264,
      "el": 265,
      "qu": 266,
      "Ġentonces": 267,
      "Ġlas": 268,
      "Ġimplica": 269,
      "mb": 270,
      "Ã¡s": 271,
      "mula": 272,
      "Ġd": 273,
      "ario": 274,
      "Ġha": 275,
      "era": 276,
      "eces": 277,
      "ĠP": 278,
      "Ġpara": 279,
      "ĠestÃ¡": 280,
      "tu": 281,
      "Ġprop": 282,
      "Ġneces": 283,
      "Ġmen": 284,
      "Ġconj": 285,
      "Ġver": 286,
      "uc": 287,
      "dem": 288,
      "Ġdi": 289,
      "ma": 290,
      "is": 291,
      "Ġproposi": 292,
      "ri": 293,
      "se": 294,
      "ĠS": 295,
      "Ġ((": 296,
      "Ġal": 297,
      "Ġsu": 298,
      "ut": 299,
      "tiv": 300,
      "mple": 301,
      "ĠconjunciÃ³n": 302,
      "Ġac": 303,
      "ali": 304,
      "demÃ¡s": 305,
      "Ġ<|": 306,
      "qui": 307,
      "Ġlo": 308,
      "Ġso": 309,
      "li": 310,
      "ĠâĨĶ": 311,
      "le": 312,
      "Ġ=": 313,
      "ien": 314,
      "Ġmenos": 315,
      "ific": 316,
      "dent": 317,
      "Ġ(Â¬": 318,
      "mos": 319,
      "Ġcondiciones": 320,
      "ĠEsto": 321,
      "dica": 322,
      "),": 323,
      "ĠimplicaciÃ³n": 324,
      "unci": 325,
      "im": 326,
      "Ġenunci": 327,
      "Ġenunciado": 328,
      "Ġverda": 329,
      "Ġdel": 330,
      "Ġser": 331,
      "eg": 332,
      "go": 333,
      "Ġindica": 334,
      "Ġpor": 335,
      "ant": 336,
      "Ġfal": 337,
      "...": 338,
      "tra": 339,
      "Ġverdade": 340,
      "ir": 341,
      "ando": 342,
      "Ġus": 343,
      "tura": 344,
      "Ġint": 345,
      "ug": 346,
      "Ġhay": 347,
      "Ġdeb": 348,
      "ac": 349,
      "cional": 350,
      "cia": 351,
      "Ã³r": 352,
      "Ġ(â": 353,
      "dad": 354,
      "Ġparte": 355,
      "ĠI": 356,
      "ara": 357,
      "aciÃ³n": 358,
      "Ġsolo": 359,
      "Ġpue": 360,
      "ce": 361,
      "Ġdis": 362,
      "res": 363,
      "Ġlos": 364,
      "vi": 365,
      "Ãº": 366,
      "El": 367,
      "que": 368,
      "Ã³rmula": 369,
      "Ã³g": 370,
      "aliz": 371,
      "Ġseg": 372,
      "ĠlÃ³g": 373,
      "Ã¡to": 374,
      "ĠfÃ³rmula": 375,
      "ĠC": 376,
      "mi": 377,
      "Ġcomple": 378,
      "ĠademÃ¡s": 379,
      "Ġdes": 380,
      "Ġsea": 381,
      "ble": 382,
      "ho": 383,
      "ecta": 384,
      "fin": 385,
      "Ġexp": 386,
      "tos": 387,
      "no": 388,
      "ĠÃ¡to": 389,
      "ece": 390,
      "Ġpero": 391,
      "dentific": 392,
      "ĠlÃ³gica": 393,
      "ĠproposiciÃ³n": 394,
      "tor": 395,
      "ĠIdentific": 396,
      "for": 397,
      "Ġw": 398,
      "duc": 399,
      "Ġca": 400,
      "Ġactiv": 401,
      "Ġpa": 402,
      "Ġpuede": 403,
      "cu": 404,
      "ĠD": 405,
      "Ġnecesario": 406,
      "Ġap": 407,
      "Ġto": 408,
      "Ġprim": 409,
      "Ġg": 410,
      "iene": 411,
      "ugh": 412,
      "Ġant": 413,
      "Ġusu": 414,
      "ĠEl": 415,
      "unda": 416,
      "naliz": 417,
      "ruc": 418,
      "put": 419,
      "Ġdos": 420,
      "das": 421,
      "Ġper": 422,
      "dicional": 423,
      "Ġequi": 424,
      "formula": 425,
      "Ġdebe": 426,
      "Ġat": 427,
      "ere": 428,
      "tho": 429,
      "est": 430,
      "čĊ": 431,
      "ĠAnaliz": 432,
      "ĠÂ¬(": 433,
      "input": 434,
      "bos": 435,
      "eos": 436,
      "|><|": 437,
      "ught": 438,
      "thought": 439,
      "Ġmo": 440,
      "ing": 441,
      "ructura": 442,
      "Ã³m": 443,
      "Ġestructura": 444,
      "ĠatÃ³m": 445,
      "Ġcuando": 446,
      "Ġverdadero": 447,
      "Ġusuario": 448,
      "ĠatÃ³mica": 449,
      "dos": 450,
      "Ġprimera": 451,
      "ento": 452,
      "cir": 453,
      "inal": 454,
      "Ġnecesari": 455,
      "ico": 456,
      "Ġtiene": 457,
      "tes": 458,
      "Ġneg": 459,
      "val": 460,
      "inci": 461,
      "ĠestÃ©": 462,
      "Ġsegunda": 463,
      "Ġproposiciones": 464,
      "yunciÃ³n": 465,
      "bi": 466,
      "fi": 467,
      "ten": 468,
      "ste": 469,
      "ifica": 470,
      "ĠdisyunciÃ³n": 471,
      "Ġcompleta": 472,
      "Ġ(âĪ": 473,
      "ul": 474,
      "ea": 475,
      "Ġesta": 476,
      "pal": 477,
      "Ġexce": 478,
      "Ġfalla": 479,
      "Ġequival": 480,
      "Ġdecir": 481,
      "lu": 482,
      "Ġprinci": 483,
      "Ġprincipal": 484,
      "ĠPara": 485,
      "stema": 486,
      "Ġson": 487,
      "so": 488,
      "Ġcons": 489,
      "nte": 490,
      "Ġpas": 491,
      "Ġsistema": 492,
      "Ġcla": 493,
      "ondicional": 494,
      "Ġtra": 495,
      "icondicional": 496,
      "ay": 497,
      "Ġinter": 498,
      "Ġten": 499,
      "ĠatÃ³micas": 500,
      "Ġfra": 501,
      "Ġres": 502,
      ")).": 503,
      "ĠnegaciÃ³n": 504,
      "Ġcor": 505,
      "gi": 506,
      "tr": 507,
      "duce": 508,
      "Ġbicondicional": 509,
      "Ġfrase": 510,
      "Ġnecesaria": 511,
      "tar": 512,
      "ack": 513,
      "icamente": 514,
      "ga": 515,
      "Ġemb": 516,
      "anto": 517,
      "onde": 518,
      "Ġtanto": 519,
      "Ġembar": 520,
      "Ġ(âĨ": 521,
      "gn": 522,
      "Ġpo": 523,
      "Ã¡li": 524,
      "ĠDe": 525,
      "Ġembargo": 526,
      "po": 527,
      "Ġexcep": 528,
      "Ġej": 529,
      "ĠB": 530,
      "emp": 531,
      "Ġentre": 532,
      "Ġdefin": 533,
      "min": 534,
      "Ġrequi": 535,
      "ĠIdentifico": 536,
      "Ġpre": 537,
      "ncia": 538,
      "ector": 539,
      "lica": 540,
      "Ġ[": 541,
      "za": 542,
      "Ġotra": 543,
      "ecue": 544,
      "Ãºn": 545,
      "Ġhaya": 546,
      "Ġfinal": 547,
      "dor": 548,
      "Ġro": 549,
      "aj": 550,
      "erta": 551,
      "Ġda": 552,
      "ĠÃ¡tomo": 553,
      "ĠPor": 554,
      "Ġamb": 555,
      "ve": 556,
      "ter": 557,
      "ĠÃ¡tomos": 558,
      "ĠR": 559,
      "cur": 560,
      "Ġ(âĪ§": 561,
      "Ġconsecue": 562,
      "ĠSi": 563,
      "Ġcumpl": 564,
      "cri": 565,
      "Ġejec": 566,
      "recta": 567,
      "Ġrep": 568,
      "Ġexi": 569,
      "sÃŃ": 570,
      "clu": 571,
      "Ġexitos": 572,
      "Ġconector": 573,
      "xto": 574,
      "bl": 575,
      "lam": 576,
      "ĠEn": 577,
      "bili": 578,
      "ĠDefin": 579,
      "Ġservi": 580,
      "Ġocur": 581,
      "dente": 582,
      "encia": 583,
      "na": 584,
      "arÃ©": 585,
      "almente": 586,
      "ĠV": 587,
      "us": 588,
      "gu": 589,
      "Ġverdadera": 590,
      "Ġbien": 591,
      "Ġaf": 592,
      "ita": 593,
      "ridad": 594,
      "ĠvÃ¡li": 595,
      "ĠIdentificar": 596,
      "Ġx": 597,
      "tado": 598,
      "Para": 599,
      "No": 600,
      "ĠexcepciÃ³n": 601,
      "Ġfor": 602,
      "Ġata": 603,
      "ÃŃa": 604,
      "Ġpartes": 605,
      "Ġposi": 606,
      "mbin": 607,
      "ĠPero": 608,
      "ice": 609,
      "ĠAnalizar": 610,
      "xi": 611,
      "Ġcap": 612,
      "pera": 613,
      "ver": 614,
      "ĠAnalizo": 615,
      "Ġreg": 616,
      "Ġfi": 617,
      "ĠF": 618,
      "Ġequivalente": 619,
      "fica": 620,
      "Ġllam": 621,
      "siÃ³n": 622,
      "Ġantece": 623,
      ")<|": 624,
      "ori": 625,
      "um": 626,
      "...'": 627,
      "Ġrequiere": 628,
      "erc": 629,
      "oni": 630,
      "be": 631,
      "ido": 632,
      "ch": 633,
      "Ġantecedente": 634,
      "Ġconectores": 635,
      "con": 636,
      "enta": 637,
      "ĠCo": 638,
      "Ġdet": 639,
      "Ġcomp": 640,
      "Ġ2": 641,
      "tro": 642,
      "rÃ¡": 643,
      "io": 644,
      "Ġdonde": 645,
      "Ġambas": 646,
      "Ġau": 647,
      "mero": 648,
      "Ġ1": 649,
      "ĠllamarÃ©": 650,
      "Ġdep": 651,
      "empre": 652,
      "Ġj": 653,
      "irma": 654,
      "bre": 655,
      "Ġ(âĨĴ": 656,
      "Ġdice": 657,
      "Ãºnicamente": 658,
      "Ġataque": 659,
      "ntes": 660,
      "rado": 661,
      "Ġejecu": 662,
      "Ġdisp": 663,
      "Ġmant": 664,
      "Ġman": 665,
      "Ġexitoso": 666,
      "Ġactiva": 667,
      "iv": 668,
      "cio": 669,
      "all": 670,
      "ĠVer": 671,
      "loque": 672,
      "pre": 673,
      "ificar": 674,
      "imi": 675,
      "fici": 676,
      "Ġexpres": 677,
      "Ġocurre": 678,
      "ĠSin": 679,
      "Ġpermi": 680,
      "entes": 681,
      "ĠU": 682,
      "rec": 683,
      "ĠvÃ¡lido": 684,
      "sa": 685,
      "Ġya": 686,
      "Ġad": 687,
      "Ġcumple": 688,
      "Ġaplica": 689,
      "back": 690,
      "ad": 691,
      "gra": 692,
      "Ġrec": 693,
      "tal": 694,
      "eri": 695,
      "edi": 696,
      "Ġbloque": 697,
      "Ġtraduce": 698,
      "co": 699,
      "Ġci": 700,
      "uego": 701,
      "unt": 702,
      "Ġconsecuente": 703,
      "ĠT": 704,
      "Ġcontra": 705,
      "ha": 706,
      "ceso": 707,
      "Ġinterpre": 708,
      "ru": 709,
      "Ġpres": 710,
      "Ġaut": 711,
      "ador": 712,
      "ĠserÃ¡": 713,
      "Ġclave": 714,
      "Ġposible": 715,
      "Ġcas": 716,
      "mÃ¡": 717,
      "ĠAsÃŃ": 718,
      "Ġalerta": 719,
      "Ġtest": 720,
      "ÃŃci": 721,
      "Ġauto": 722,
      "tivo": 723,
      "Ġconte": 724,
      "ada": 725,
      "pe": 726,
      "tiva": 727,
      "orm": 728,
      "rar": 729,
      "Ġrequ": 730,
      "Ġsufici": 731,
      "ntesis": 732,
      "Ġmodo": 733,
      "Ġmay": 734,
      "mbi": 735,
      "))<|": 736,
      "ĠparÃ©": 737,
      "ĠparÃ©ntesis": 738,
      "erto": 739,
      "Ġta": 740,
      "Ġmanten": 741,
      "ĠCombin": 742,
      "ge": 743,
      "Ġtenga": 744,
      "Ġch": 745,
      "Ġcorrecta": 746,
      "Ġconsi": 747,
      "ues": 748,
      "ca": 749,
      "Ġterc": 750,
      "Ġob": 751,
      "Ġcontexto": 752,
      "Ġdisponi": 753,
      "je": 754,
      "ĠmÃ¡s": 755,
      "ror": 756,
      "Ġsimple": 757,
      "Ġsobre": 758,
      "Ġsugi": 759,
      "gnifica": 760,
      "endi": 761,
      "loy": 762,
      "rror": 763,
      "Ġtodas": 764,
      "Ġsegu": 765,
      "Ġsugiere": 766,
      "Ġerror": 767,
      "Ġsin": 768,
      "ifico": 769,
      "ÃŃt": 770,
      "Ã©n": 771,
      "Ġpod": 772,
      "ck": 773,
      "Ġdesp": 774,
      "ĠDefino": 775,
      "miento": 776,
      "Ġsignifica": 777,
      "lti": 778,
      "int": 779,
      "Ġcaptura": 780,
      "Ġapro": 781,
      "Ãºlti": 782,
      "Ġuni": 783,
      "Ġafirma": 784,
      "Ġdeben": 785,
      "laciÃ³n": 786,
      "Ġadmin": 787,
      "alida": 788,
      "La": 789,
      "mbiÃ©n": 790,
      "ademÃ¡s": 791,
      "mis": 792,
      "idad": 793,
      "Ġmayor": 794,
      "Ġdeploy": 795,
      "Si": 796,
      "Ġconecta": 797,
      "tamente": 798,
      "ĠNo": 799,
      "Ġtercera": 800,
      "pero": 801,
      "ĠAsi": 802,
      "mÃ¡t": 803,
      "Ġfalso": 804,
      "Ġcaso": 805,
      "Ġ3": 806,
      "entica": 807,
      "Ġle": 808,
      "Ġtres": 809,
      "tenido": 810,
      "Ġdetecta": 811,
      "ĠEsta": 812,
      "va": 813,
      "arÃ¡": 814,
      "Ġactivo": 815,
      "erior": 816,
      "ntro": 817,
      "lback": 818,
      "Ġfla": 819,
      "ĠÃºnicamente": 820,
      "Ġinclu": 821,
      "Ġintro": 822,
      "eck": 823,
      "Ġaprob": 824,
      "Ġ4": 825,
      "raciÃ³n": 826,
      "Ġproduc": 827,
      "ĠtÃ©": 828,
      "Ġpasa": 829,
      "Ġcumplir": 830,
      "Ġflag": 831,
      "Ġra": 832,
      "Ġcr": 833,
      "bra": 834,
      "Ġ5": 835,
      "Ġ(âĪ§).": 836,
      "ici": 837,
      "Ã±": 838,
      "Ġdatos": 839,
      "Ġdentro": 840,
      "Ġcheck": 841,
      "Ġan": 842,
      "Ġadicional": 843,
      "Ġautentica": 844,
      "ĠO": 845,
      "ja": 846,
      "Ġsta": 847,
      "Ġestabl": 848,
      "Ġcumplen": 849,
      "Ġsupera": 850,
      "Ġcontenido": 851,
      "ĠForm": 852,
      "vant": 853,
      "Ġnecesita": 854,
      "Ġma": 855,
      "Ġsiempre": 856,
      "Ġregla": 857,
      "ĠautomÃ¡t": 858,
      "Ġmode": 859,
      "Ġservicio": 860,
      "Ġpago": 861,
      "Ġmin": 862,
      "Ġestablece": 863,
      "emos": 864,
      "Ġservidor": 865,
      "ecciÃ³n": 866,
      "Ġmor": 867,
      "aje": 868,
      "Ġrele": 869,
      "Ġmanu": 870,
      "eo": 871,
      "00": 872,
      "Ġesto": 873,
      "Ġdefino": 874,
      "quÃŃ": 875,
      "ajo": 876,
      "Ġjug": 877,
      "Ġrequest": 878,
      "labra": 879,
      "Ġpalabra": 880,
      "Ġ(((": 881,
      "ĠPri": 882,
      "em": 883,
      "dep": 884,
      "wall": 885,
      "rewall": 886,
      "gno": 887,
      "Ġmis": 888,
      "bles": 889,
      "des": 890,
      "Ġverifica": 891,
      "Ġconside": 892,
      "ĠRe": 893,
      ")))": 894,
      "il": 895,
      "Ġcom": 896,
      "dencia": 897,
      "Ġfirewall": 898,
      "pas": 899,
      "fico": 900,
      "he": 901,
      "Ġexpl": 902,
      "ĠLuego": 903,
      "Ġconfi": 904,
      "ĠCon": 905,
      "Ġcl": 906,
      "Ġrepres": 907,
      "Ġsuficiente": 908,
      "demos": 909,
      "Ġintroduce": 910,
      "Ġ(âĨĶ": 911,
      "ĠFormalmente": 912,
      "nera": 913,
      "ĠSe": 914,
      "ulnera": 915,
      "Ã¡n": 916,
      "Ġexpresar": 917,
      "Ġgra": 918,
      "Ġrol": 919,
      "Ġqu": 920,
      "ĠcrÃŃt": 921,
      "Ġve": 922,
      "Ġvulnera": 923,
      "Ġanterior": 924,
      "Ġrelevant": 925,
      "ĠexplÃŃci": 926,
      "ĠY": 927,
      "Ġcada": 928,
      "Ġor": 929,
      "Ġbas": 930,
      ")]": 931,
      "Ġcumplirse": 932,
      "dependi": 933,
      "los": 934,
      "ĠtambiÃ©n": 935,
      "ĠPrimero": 936,
      "ante": 937,
      "cn": 938,
      "ĠtÃ©cn": 939,
      "Ġback": 940,
      "Ġinteg": 941,
      "ciona": 942,
      "Ġ(âĪ§)": 943,
      "liente": 944,
      "Ġindependi": 945,
      "exi": 946,
      "Ġtener": 947,
      "yo": 948,
      "ales": 949,
      "Ġejecuta": 950,
      "lan": 951,
      "Ġsub": 952,
      "istra": 953,
      "ĠestÃ¡n": 954,
      "Ġte": 955,
      "Ġjugador": 956,
      "vis": 957,
      "Ġrelevantes": 958,
      "Ġ(âĪ¨": 959,
      "et": 960,
      "Ġdirecta": 961,
      "ĠtrÃ¡": 962,
      "vo": 963,
      "Ġprece": 964,
      "amente": 965,
      "ĠnÃº": 966,
      "ĠproducciÃ³n": 967,
      "Ġprecedencia": 968,
      "ĠVerifico": 969,
      "tien": 970,
      "condi": 971,
      "ura": 972,
      "Ġpri": 973,
      "imiento": 974,
      "Ġgen": 975,
      "ypas": 976,
      "cra": 977,
      "Ġcan": 978,
      "ĠÃ©": 979,
      "ĠAdemÃ¡s": 980,
      "der": 981,
      "Ġ((Â¬": 982,
      "Ġprincipales": 983,
      "xito": 984,
      "ip": 985,
      "Ġacceso": 986,
      "Ġcompleto": 987,
      "Ġcondicional": 988,
      "Ġ(âĨĴ)": 989,
      "Ġconexi": 990,
      "Ġz": 991,
      "Ġpu": 992,
      "ĠDefinir": 993,
      "ĠacciÃ³n": 994,
      "Ġdesc": 995,
      "cribe": 996,
      "Ã³cra": 997,
      "Ã³crates": 998,
      "Ġcliente": 999,
      "urante": 1000,
      "pec": 1001,
      "Ġli": 1002,
      "Ġforma": 1003,
      "Ġresul": 1004,
      "ponde": 1005,
      "bilidad": 1006,
      "ĠSea": 1007,
      "visi": 1008,
      "Ġasi": 1009,
      "ĠasÃŃ": 1010,
      "bilitado": 1011,
      "ĠnÃºmero": 1012,
      "ĠSimpl": 1013,
      "Ġreci": 1014,
      "por": 1015,
      "Ġseguridad": 1016,
      "ĠtrÃ¡fico": 1017,
      "Ġclaridad": 1018,
      "Ġtar": 1019,
      "fer": 1020,
      ".'": 1021,
      "Ġequivale": 1022,
      "jeta": 1023,
      "terna": 1024,
      "Ġexplo": 1025,
      "ndo": 1026,
      "Ġbypas": 1027,
      "ken": 1028,
      "up": 1029,
      "ĠÃ©xito": 1030,
      "Ġvi": 1031,
      "Ġ[(": 1032,
      "Ġfun": 1033,
      "Ã©s": 1034,
      "ĠH": 1035,
      "Ġcar": 1036,
      "orig": 1037,
      "arios": 1038,
      "Ġcac": 1039,
      "Ġusa": 1040,
      "Ġtodos": 1041,
      "Ġtexto": 1042,
      "Ġpermite": 1043,
      "Ġbase": 1044,
      "Ġconclu": 1045,
      "Ġnecesarias": 1046,
      "Ã¡us": 1047,
      "Ã¡usula": 1048,
      "ÃŃn": 1049,
      "Ġestas": 1050,
      "ĠclÃ¡usula": 1051,
      "Ġbajo": 1052,
      "Sin": 1053,
      "Ġorig": 1054,
      "Ġinterpreta": 1055,
      "Ġcual": 1056,
      "ros": 1057,
      "hay": 1058,
      "Ġpermis": 1059,
      "gue": 1060,
      "Ġag": 1061,
      "ĠconexiÃ³n": 1062,
      "Ġmismo": 1063,
      "Ġfalsa": 1064,
      "it": 1065,
      "Ġmodi": 1066,
      "Ġinv": 1067,
      "ĠCombinar": 1068,
      "Ġdivisi": 1069,
      "Ġconfigu": 1070,
      "Ġcorrectamente": 1071,
      "du": 1072,
      "ĠM": 1073,
      "AdemÃ¡s": 1074,
      "Ġestar": 1075,
      "Ġconsecuencia": 1076,
      "les": 1077,
      "lar": 1078,
      "uent": 1079,
      "ĠVerificar": 1080,
      "ot": 1081,
      "Ġtarjeta": 1082,
      "Ġmar": 1083,
      "Ġcache": 1084,
      "Ġmenor": 1085,
      "ĠoraciÃ³n": 1086,
      "icos": 1087,
      "Ġconjunt": 1088,
      "tion": 1089,
      "tin": 1090,
      "cias": 1091,
      "Ġgener": 1092,
      "uer": 1093,
      "Ġequipo": 1094,
      "tifica": 1095,
      "Ġproces": 1096,
      "Ġtoken": 1097,
      "ĠAP": 1098,
      "Ġrepor": 1099,
      "Se": 1100,
      "utos": 1101,
      "che": 1102,
      "tÃ¡n": 1103,
      "Ġab": 1104,
      "Ã±a": 1105,
      "uando": 1106,
      "Ġhor": 1107,
      "Ġafe": 1108,
      "icas": 1109,
      "tru": 1110,
      "Ġminutos": 1111,
      "ral": 1112,
      "ĠconclusiÃ³n": 1113,
      "ment": 1114,
      "Ġactivado": 1115,
      "Ġexpi": 1116,
      "Ġsimpl": 1117,
      "ging": 1118,
      "Ġpueda": 1119,
      "Ġinterpretar": 1120,
      "Ġ8": 1121,
      "Ġconf": 1122,
      "Ãºltip": 1123,
      "ĠtÃ©cnico": 1124,
      "Ġnue": 1125,
      "ĠÂ¬((": 1126,
      "tiene": 1127,
      "ĠmÃºltip": 1128,
      "uel": 1129,
      "Ġpay": 1130,
      "ber": 1131,
      "uÃ©s": 1132,
      "ĠIP": 1133,
      "crip": 1134,
      "Ġmi": 1135,
      "Ġvalida": 1136,
      "Ġgru": 1137,
      "ivo": 1138,
      "ĠAsign": 1139,
      "Ġindependiente": 1140,
      "mul": 1141,
      "Ġtests": 1142,
      "Ġdisponible": 1143,
      "ser": 1144,
      "arse": 1145,
      "ĠverificaciÃ³n": 1146,
      "Ġpermisos": 1147,
      "cula": 1148,
      "Ġejecut": 1149,
      "multÃ¡n": 1150,
      "ba": 1151,
      "rite": 1152,
      "Ġevi": 1153,
      "Ġcorres": 1154,
      "Ġafeita": 1155,
      "Ġvo": 1156,
      "Ġreco": 1157,
      "ĠsimultÃ¡n": 1158,
      "Ġresultado": 1159,
      "Ġdivisible": 1160,
      "Ġcombin": 1161,
      "Ġalta": 1162,
      "ĠmÃºltiples": 1163,
      "mer": 1164,
      "Ġref": 1165,
      "Ġna": 1166,
      "ÃŃo": 1167,
      "Ġimp": 1168,
      "Ġmortal": 1169,
      "Ġbin": 1170,
      "eamente": 1171,
      "Ġdo": 1172,
      "Ġeste": 1173,
      "Ġpodr": 1174,
      "ĠRevis": 1175,
      "Ġred": 1176,
      "load": 1177,
      "ĠEnt": 1178,
      "Ġar": 1179,
      "Ġproposicional": 1180,
      "Ġgeneral": 1181,
      "Ġpayload": 1182,
      "cla": 1183,
      "su": 1184,
      "ĠsimultÃ¡neamente": 1185,
      "stru": 1186,
      "Ġimplicaciones": 1187,
      "Ġform": 1188,
      "ĠsÃŃ": 1189,
      "sis": 1190,
      "Ġdefini": 1191,
      "ĠAquÃŃ": 1192,
      "Ġgrupo": 1193,
      "ric": 1194,
      "ĠAsignar": 1195,
      "sta": 1196,
      "me": 1197,
      "can": 1198,
      "Ġdecla": 1199,
      "ĠW": 1200,
      "ĠLas": 1201,
      "entos": 1202,
      "Ġsup": 1203,
      "ĠEntonces": 1204,
      "Ġmodifica": 1205,
      "iÃ³n": 1206,
      "undo": 1207,
      "ĠaprobaciÃ³n": 1208,
      "th": 1209,
      "lieg": 1210,
      "tido": 1211,
      "mium": 1212,
      "ĠConstru": 1213,
      "fec": 1214,
      "Ġvio": 1215,
      "Ġalterna": 1216,
      "Ġwrite": 1217,
      "Ġmanual": 1218,
      "Ġderec": 1219,
      "Ġperten": 1220,
      "Ġopera": 1221,
      "Ġdescribe": 1222,
      "Ġoriginal": 1223,
      "den": 1224,
      "mpa": 1225,
      "Ġcontro": 1226,
      "Ġvari": 1227,
      "Ġsh": 1228,
      "dez": 1229,
      "Ġregi": 1230,
      "Ġti": 1231,
      "Ġanti": 1232,
      "ine": 1233,
      "inalmente": 1234,
      "gencia": 1235,
      "Ġcierta": 1236,
      "ture": 1237,
      "ĠN": 1238,
      "uesta": 1239,
      "para": 1240,
      "condiciÃ³n": 1241,
      "Ġverdaderas": 1242,
      "Ġmantenimiento": 1243,
      "Ġdesplieg": 1244,
      ")))<|": 1245,
      "Ġnatu": 1246,
      "Ġconduc": 1247,
      "Ġmedi": 1248,
      "Ġ(Â¬(": 1249,
      "taciÃ³n": 1250,
      "Ġcorresponde": 1251,
      "ost": 1252,
      "Ġtu": 1253,
      "ĠLos": 1254,
      "Ġcump": 1255,
      "Ġadministra": 1256,
      "uar": 1257,
      "Ġsido": 1258,
      "Ġsus": 1259,
      "ĠautenticaciÃ³n": 1260,
      "siempre": 1261,
      "ist": 1262,
      "ĠÃºlti": 1263,
      "mite": 1264,
      "ĠdespuÃ©s": 1265,
      "Ġconfigurado": 1266,
      "ty": 1267,
      "ĠmÃ©": 1268,
      "plica": 1269,
      "Ġsan": 1270,
      "ĠlÃ³gicamente": 1271,
      "Ġunidas": 1272,
      "ed": 1273,
      "unciones": 1274,
      "Ġcuyo": 1275,
      "Ġemer": 1276,
      "Ġverdad": 1277,
      "Ġemergencia": 1278,
      "Ġapar": 1279,
      "ĠFinalmente": 1280,
      "arb": 1281,
      "ĠexplÃŃcitamente": 1282,
      "Ġbarb": 1283,
      "Ġbarbero": 1284,
      "jo": 1285,
      "rup": 1286,
      "Ġbypasse": 1287,
      "PO": 1288,
      "Ġproceso": 1289,
      "Ġrest": 1290,
      "ĠSeg": 1291,
      "ĠautomÃ¡ticamente": 1292,
      "ker": 1293,
      "Ġ(âĨĶ)": 1294,
      "Ġciertas": 1295,
      "ĠrelaciÃ³n": 1296,
      "Ġ(âĨĴ).": 1297,
      "ĠAsigno": 1298,
      "Ġ6": 1299,
      "Ġvali": 1300,
      "bo": 1301,
      "Ġdesha": 1302,
      "Ġautenticado": 1303,
      "ĠSÃ³crates": 1304,
      "Ġtrata": 1305,
      "tencia": 1306,
      "pÃ³n": 1307,
      "enda": 1308,
      "Ġprogra": 1309,
      "segu": 1310,
      "Ġtodo": 1311,
      "Ġtotal": 1312,
      "Ġrepresenta": 1313,
      "Ġho": 1314,
      "Ġstaging": 1315,
      "Ġident": 1316,
      "Ġfil": 1317,
      "Ġesca": 1318,
      "Ġfallback": 1319,
      "Ġune": 1320,
      "Ġdisponibles": 1321,
      "ĠÂ¬Â¬": 1322,
      "grade": 1323,
      "Ġpodemos": 1324,
      "Ġambos": 1325,
      "Ġafirmaciones": 1326,
      "aliza": 1327,
      "medi": 1328,
      "Ġcre": 1329,
      "Ġrollback": 1330,
      "))).": 1331,
      "Ġcontrato": 1332,
      "Ġpaque": 1333,
      "cer": 1334,
      "cal": 1335,
      "Ġdurante": 1336,
      "ĠintegraciÃ³n": 1337,
      "ĠcupÃ³n": 1338,
      "Ġrate": 1339,
      "cios": 1340,
      "Ġnecesitas": 1341,
      "TO": 1342,
      "Ġtemp": 1343,
      "Ġmediante": 1344,
      "Ġ10": 1345,
      "Ġcierto": 1346,
      "Ġlan": 1347,
      "Ġconductor": 1348,
      "Ġenv": 1349,
      "Ġverdaderos": 1350,
      "Ġlog": 1351,
      "Ġrecibe": 1352,
      "las": 1353,
      "Ġrequisi": 1354,
      "ĠUn": 1355,
      "Ġresta": 1356,
      "ones": 1357,
      "Ġdir": 1358,
      "Ġpaso": 1359,
      "cado": 1360,
      "Ġpreci": 1361,
      "tem": 1362,
      "...'.": 1363,
      "Ġinterna": 1364,
      "war": 1365,
      "pecÃŃ": 1366,
      "ĠAPI": 1367,
      "ens": 1368,
      "Ġbu": 1369,
      "ĠejecuciÃ³n": 1370,
      "glos": 1371,
      "ĠcÃ³": 1372,
      "ĠcrÃŃtico": 1373,
      "].": 1374,
      "Ġinsta": 1375,
      "Ġagrup": 1376,
      "st": 1377,
      "Ġconjunciones": 1378,
      "entar": 1379,
      "ĠRPO": 1380,
      "dar": 1381,
      "ĠlÃŃ": 1382,
      "zado": 1383,
      "Ġdespliegue": 1384,
      "Ġmantener": 1385,
      "ĠcÃ³di": 1386,
      "rada": 1387,
      "Ġalg": 1388,
      "Ġup": 1389,
      "ĠDes": 1390,
      "Ġhacia": 1391,
      "Ġnatural": 1392,
      "ye": 1393,
      "Ġni": 1394,
      "Ġesa": 1395,
      "ĠcÃ³digo": 1396,
      "Ġhacer": 1397,
      "cen": 1398,
      "ĠâĪ§,": 1399,
      "Ġsigue": 1400,
      "turar": 1401,
      "tener": 1402,
      "ĠTerc": 1403,
      "Ġalcan": 1404,
      "Ġprevi": 1405,
      "Ġrecu": 1406,
      "Ġdeshabilitado": 1407,
      "amiento": 1408,
      "hi": 1409,
      "Ġregis": 1410,
      "ĠafirmaciÃ³n": 1411,
      "onitor": 1412,
      "Ġfea": 1413,
      "Ġmanualmente": 1414,
      "Ãºs": 1415,
      "Ġabor": 1416,
      "her": 1417,
      "tear": 1418,
      "ĠmayorÃŃa": 1419,
      "ĠimplÃŃci": 1420,
      "dida": 1421,
      "Ġmodela": 1422,
      "Ġdefine": 1423,
      "Ġproce": 1424,
      "Ġpremium": 1425,
      "Ġmonitor": 1426,
      "Ġupgrade": 1427,
      "ff": 1428,
      "rue": 1429,
      "Ġlis": 1430,
      "quier": 1431,
      "cial": 1432,
      "Ġtran": 1433,
      "ball": 1434,
      "Ġnega": 1435,
      "Ġbloqueado": 1436,
      "Hay": 1437,
      "Ġfuer": 1438,
      "ĠaplicaciÃ³n": 1439,
      "Ġ(âĪ¨)": 1440,
      "bir": 1441,
      "Ġcaball": 1442,
      "Ġincluso": 1443,
      "ende": 1444,
      "Ġpuerto": 1445,
      "ary": 1446,
      "ivel": 1447,
      "Ġ).": 1448,
      "Ġescri": 1449,
      "Ġexac": 1450,
      "recto": 1451,
      "Ġ&": 1452,
      "seÃ±a": 1453,
      "Ġalternativa": 1454,
      "ciente": 1455,
      "ĠversiÃ³n": 1456,
      "Ġev": 1457,
      "edido": 1458,
      "Ġsuficientes": 1459,
      "Ġasigno": 1460,
      "Ġdirty": 1461,
      "Ġnueva": 1462,
      "Cuando": 1463,
      "ati": 1464,
      "Ġabi": 1465,
      "Ã³rum": 1466,
      "una": 1467,
      "man": 1468,
      "Ġcir": 1469,
      "tras": 1470,
      "Ġpaciente": 1471,
      "ĠcontraseÃ±a": 1472,
      "Ġinici": 1473,
      "Ġfeature": 1474,
      "QL": 1475,
      "Ġsco": 1476,
      "tas": 1477,
      "Ãºscula": 1478,
      "...',": 1479,
      "ĠquÃ³rum": 1480,
      "ito": 1481,
      "ĠNotar": 1482,
      "mail": 1483,
      "Ġclara": 1484,
      "Ġviola": 1485,
      "ĠaquÃŃ": 1486,
      "Ġop": 1487,
      "tori": 1488,
      "Ġexpirado": 1489,
      "ÃŃni": 1490,
      "Ġtri": 1491,
      "Ġexpresa": 1492,
      "icidad": 1493,
      "Ġfunciona": 1494,
      "mpate": 1495,
      "Ġran": 1496,
      "Ġporque": 1497,
      "Ġroja": 1498,
      "ĠregiÃ³n": 1499,
      "ĠlÃŃmite": 1500,
      "Ġinvalida": 1501,
      "Un": 1502,
      "Ġrecom": 1503,
      "Ġpaquete": 1504,
      "Ġscope": 1505,
      "Ġpasan": 1506,
      "ĠmÃŃni": 1507,
      "Ġformula": 1508,
      "Ġbloquea": 1509,
      "ida": 1510,
      "Ġcoinci": 1511,
      "ep": 1512,
      "Ġplan": 1513,
      "amos": 1514,
      "Ġdescar": 1515,
      "Ġstage": 1516,
      "Ġidentifica": 1517,
      "ear": 1518,
      "endo": 1519,
      "Ġ80": 1520,
      "Ġmens": 1521,
      "Ġobje": 1522,
      "Ġexis": 1523,
      "Ġreglas": 1524,
      "ĠvalidaciÃ³n": 1525,
      "ĠDesglos": 1526,
      "Ġban": 1527,
      "Ġcontrol": 1528,
      "Ġbinario": 1529,
      "Ġpresenta": 1530,
      "Ġpedido": 1531,
      "Ġ15": 1532,
      "Ġmul": 1533,
      "zar": 1534,
      "Ġrestric": 1535,
      "ĠQ": 1536,
      "LA": 1537,
      "TL": 1538,
      "eado": 1539,
      "ular": 1540,
      "Ġexactamente": 1541,
      "Ġtien": 1542,
      "Ġnivel": 1543,
      "Ġnotifica": 1544,
      "rea": 1545,
      "Ġcandida": 1546,
      "Ġderecho": 1547,
      "Ġmensaje": 1548,
      "Ã¡tomo": 1549,
      "Ġabierto": 1550,
      "alla": 1551,
      "ĠPo": 1552,
      "Ġbackup": 1553,
      "Ġluego": 1554,
      "trar": 1555,
      "ĠX": 1556,
      "Ġemail": 1557,
      "Ġacep": 1558,
      "Ġdestin": 1559,
      "Ġequivalentemente": 1560,
      "ĠSQL": 1561,
      "eat": 1562,
      "Ġcamp": 1563,
      "Ġvalidez": 1564,
      "Ġcaballero": 1565,
      "PU": 1566,
      "Ġfue": 1567,
      "ĠRTO": 1568,
      "Ġveto": 1569,
      "Ġregistro": 1570,
      "ĠespecÃŃ": 1571,
      "Ġnodo": 1572,
      "Ġprimo": 1573,
      "ĠReviso": 1574,
      "list": 1575,
      "Ġconfirma": 1576,
      "Ġgeo": 1577,
      "Ġletras": 1578,
      "Ġfon": 1579,
      "ĠlÃ³gicos": 1580,
      "LAN": 1581,
      "Ġretr": 1582,
      "Ġhas": 1583,
      "eratura": 1584,
      "ĠSegundo": 1585,
      "ĠdetecciÃ³n": 1586,
      "ÃŃtem": 1587,
      "Ġning": 1588,
      "Ġcoher": 1589,
      "Ġotro": 1590,
      "Ġ-": 1591,
      "Ġcircu": 1592,
      "Ġspo": 1593,
      "Ġaprue": 1594,
      "Ġocurra": 1595,
      "Ġadministrador": 1596,
      "Ġespe": 1597,
      "ora": 1598,
      "Ġcapturar": 1599,
      "PA": 1600,
      "und": 1601,
      "Ġelem": 1602,
      "irm": 1603,
      "Ġexper": 1604,
      "dades": 1605,
      "fecto": 1606,
      "ban": 1607,
      "Ġsche": 1608,
      "cidad": 1609,
      "Ġrela": 1610,
      "Ġexcede": 1611,
      "porte": 1612,
      "Ġsimplificar": 1613,
      "Ġsigu": 1614,
      "Ġdesde": 1615,
      "Ġantes": 1616,
      "Ġconsidera": 1617,
      "ĠÃºltima": 1618,
      "Ġobjetivo": 1619,
      "mento": 1620,
      "rio": 1621,
      "Ġactu": 1622,
      "ĠCPU": 1623,
      "Ġcompi": 1624,
      "DS": 1625,
      "Ġpertenece": 1626,
      "ĠÃŃtem": 1627,
      "Ġdirectamente": 1628,
      "point": 1629,
      "Ġusuarios": 1630,
      "Ġvulnerable": 1631,
      "ina": 1632,
      "zada": 1633,
      "Ġfuncion": 1634,
      "Ġcompuesta": 1635,
      "ĠmÃŃnimo": 1636,
      "Ġretry": 1637,
      "Ġasign": 1638,
      "ĠautomÃ¡tico": 1639,
      "ĠvÃ¡lida": 1640,
      "out": 1641,
      "Ġhabilitado": 1642,
      "Ġusando": 1643,
      "Ġexperim": 1644,
      "Ġhoras": 1645,
      "Ġcumpla": 1646,
      "sos": 1647,
      "Ġdestino": 1648,
      "cante": 1649,
      "replica": 1650,
      "Ġatacante": 1651,
      "Ġconectadas": 1652,
      "Ġmain": 1653,
      "Ġvaria": 1654,
      "minio": 1655,
      "Ġaparece": 1656,
      "Ġleg": 1657,
      "ĠSimplifico": 1658,
      "ex": 1659,
      "Ġhomb": 1660,
      "Ġformulario": 1661,
      "dpoint": 1662,
      "Ġide": 1663,
      "Ġfondos": 1664,
      "gan": 1665,
      "Ġprimer": 1666,
      "Ġpreviamente": 1667,
      "Ġtenemos": 1668,
      "uest": 1669,
      "sof": 1670,
      "Ġtemperatura": 1671,
      "ciales": 1672,
      "Ã³sof": 1673,
      "Ġfac": 1674,
      "ĠfilÃ³sof": 1675,
      "and": 1676,
      "Ġsigui": 1677,
      "Ġsudo": 1678,
      "uelo": 1679,
      "Ġmem": 1680,
      "Ġlock": 1681,
      "Ġprograma": 1682,
      "ID": 1683,
      "Ġrestaurante": 1684,
      "ej": 1685,
      "trario": 1686,
      "uesto": 1687,
      "Ġbo": 1688,
      "ĠpodrÃŃa": 1689,
      "':": 1690,
      "Ġperio": 1691,
      "Ġseguro": 1692,
      "quival": 1693,
      "Ġexplotar": 1694,
      "Ġintegridad": 1695,
      "uedes": 1696,
      "Ġendpoint": 1697,
      "entemente": 1698,
      "Ġmoralmente": 1699,
      "ild": 1700,
      "Ġschema": 1701,
      "Ġpremis": 1702,
      "van": 1703,
      "ps": 1704,
      "tint": 1705,
      "alicios": 1706,
      "Ġdistint": 1707,
      "Ġvuelo": 1708,
      "Ġdado": 1709,
      "Ġcheckout": 1710,
      "Ġmarcado": 1711,
      "ĠTercero": 1712,
      ")'.": 1713,
      "Ġvulnerabilidad": 1714,
      "Ġcoherencia": 1715,
      "Ġregistra": 1716,
      "conj": 1717,
      "Ġagrupar": 1718,
      "Ġmalicios": 1719,
      "mit": 1720,
      "teri": 1721,
      "Ġindican": 1722,
      "Ġusar": 1723,
      "cripciÃ³n": 1724,
      "Ġejecutar": 1725,
      "Ġincluye": 1726,
      "ĠConstruir": 1727,
      "Ġtiemp": 1728,
      "Ġspe": 1729,
      "ĠSimplificar": 1730,
      "Ġcorrespondencia": 1731,
      "Ġspot": 1732,
      "onto": 1733,
      "very": 1734,
      ")].": 1735,
      "SÃ³crates": 1736,
      "ximi": 1737,
      "Ġ(âĪ¨).": 1738,
      "hora": 1739,
      "Ġtiempo": 1740,
      "ĠâĨĴ,": 1741,
      "Ġmonitoreo": 1742,
      "Ġempate": 1743,
      "Ġ(âĪ§),": 1744,
      "ega": 1745,
      "Ġhip": 1746,
      "Ġpol": 1747,
      "ies": 1748,
      "Ġsepara": 1749,
      "legi": 1750,
      "Ġdese": 1751,
      "ĠVLAN": 1752,
      "ona": 1753,
      "encias": 1754,
      "eal": 1755,
      "Ġrecomenda": 1756,
      "impl": 1757,
      "ĠâĪ¨,": 1758,
      "Ã¡lisis": 1759,
      "oria": 1760,
      "ĠdeclaraciÃ³n": 1761,
      "Ġbypassear": 1762,
      "Ġtrans": 1763,
      "ĠpolÃŃt": 1764,
      "Ġsos": 1765,
      "timo": 1766,
      "ell": 1767,
      "Ġbuild": 1768,
      "Ġmemoria": 1769,
      "'),": 1770,
      "ket": 1771,
      "Ġ20": 1772,
      "Ġaprobada": 1773,
      "ĠHay": 1774,
      "ivotear": 1775,
      "Ġacce": 1776,
      "pa": 1777,
      "Ġescen": 1778,
      "elicidad": 1779,
      "ĠTTL": 1780,
      "Ġelemento": 1781,
      "ncias": 1782,
      "Ġbrea": 1783,
      "ĠCombinando": 1784,
      "ĠanÃ¡lisis": 1785,
      "Ġfelicidad": 1786,
      "ĠJ": 1787,
      "Ġshell": 1788,
      "osiciÃ³n": 1789,
      "Ġdesac": 1790,
      "fiere": 1791,
      "Ġdepende": 1792,
      "Ġcandidato": 1793,
      "icar": 1794,
      "ĠenvÃŃo": 1795,
      "Ġcontrario": 1796,
      "Ġprue": 1797,
      "Ġdirec": 1798,
      "Ġexitosamente": 1799,
      "Ġvac": 1800,
      "ĠUna": 1801,
      "cript": 1802,
      "Ġlib": 1803,
      "ĠâĪ§.": 1804,
      "alifica": 1805,
      "Ġparti": 1806,
      "condiciones": 1807,
      "ĠdefiniciÃ³n": 1808,
      "emb": 1809,
      "Ġexter": 1810,
      "ĠCombino": 1811,
      "ĠCuar": 1812,
      "Ġlanza": 1813,
      "gado": 1814,
      "Ġmarca": 1815,
      "hos": 1816,
      "ng": 1817,
      "Ġas": 1818,
      "Ġdead": 1819,
      "Ġbreaker": 1820,
      "Ġvis": 1821,
      "vilegi": 1822,
      "Ġ(âĨĴ),": 1823,
      "Ġrequisitos": 1824,
      "Ġinver": 1825,
      "rito": 1826,
      "Ġequivalencia": 1827,
      "Ã³tes": 1828,
      "Ġ('": 1829,
      "Ġiny": 1830,
      "ĠcaÃŃ": 1831,
      "Ġresp": 1832,
      "Ġsubdo": 1833,
      "Ġfalta": 1834,
      "Ġcorrecto": 1835,
      "ĠPodemos": 1836,
      "Ġ)": 1837,
      "Ġ(Â¬Â¬": 1838,
      "Ġpermitido": 1839,
      "iti": 1840,
      "ol": 1841,
      "ven": 1842,
      "ĠsemÃ¡": 1843,
      "alizar": 1844,
      "ĠCuando": 1845,
      "hot": 1846,
      "Ġotras": 1847,
      "adow": 1848,
      "Ġheal": 1849,
      "Ġarch": 1850,
      "Ġrecur": 1851,
      "Ġhealth": 1852,
      "Ġscript": 1853,
      "Ġprivilegi": 1854,
      "tari": 1855,
      "Ġdocu": 1856,
      "culo": 1857,
      "Ġtrial": 1858,
      "ĠhipÃ³tes": 1859,
      "ĠhipÃ³tesis": 1860,
      "gas": 1861,
      "Ġelim": 1862,
      "Ġcuar": 1863,
      "ximiza": 1864,
      "ding": 1865,
      "vuel": 1866,
      "lob": 1867,
      "Ġ(âĨĶ).": 1868,
      "neg": 1869,
      "tch": 1870,
      "Ġses": 1871,
      "Ġescu": 1872,
      "Ġpase": 1873,
      "fra": 1874,
      "Ġbug": 1875,
      "ucket": 1876,
      "Ġautori": 1877,
      "hite": 1878,
      "Ġacceder": 1879,
      "zca": 1880,
      "âĪ": 1881,
      "Ġ100": 1882,
      "Ġcono": 1883,
      "Ġinters": 1884,
      "thro": 1885,
      "Ġinicial": 1886,
      "Ġth": 1887,
      "Ġcompati": 1888,
      "king": 1889,
      "pro": 1890,
      "ĠSS": 1891,
      "Ġmodelar": 1892,
      "deb": 1893,
      "lamo": 1894,
      "Ġgan": 1895,
      "ĠpodrÃ¡s": 1896,
      "ĠConstruyo": 1897,
      "Ġshadow": 1898,
      "Ġbucket": 1899,
      "ĠAhora": 1900,
      "ĠDado": 1901,
      "Ġwhite": 1902,
      "Ġglob": 1903,
      "samb": 1904,
      "Ġam": 1905,
      "Ġ400": 1906,
      "ĠintersecciÃ³n": 1907,
      "Ġpuedas": 1908,
      "Ġniega": 1909,
      "')": 1910,
      "Ġries": 1911,
      "todos": 1912,
      "Ġentero": 1913,
      "ĠAS": 1914,
      "Ġcompleja": 1915,
      "Ã©mos": 1916,
      "Ġpop": 1917,
      "Ġabordar": 1918,
      "through": 1919,
      "Ġdevuel": 1920,
      "tros": 1921,
      "Ġindependientemente": 1922,
      "ambiÃ©n": 1923,
      "ĠTambiÃ©n": 1924,
      "Ġanula": 1925,
      "Ġtim": 1926,
      "unto": 1927,
      "uestra": 1928,
      "Ġriesgo": 1929,
      "Ġrefiere": 1930,
      "Ġhaber": 1931,
      "Ġcarrito": 1932,
      "').": 1933,
      "Ġcontiene": 1934,
      "Ġinm": 1935,
      "eline": 1936,
      "acciÃ³n": 1937,
      "Ġaprueba": 1938,
      "Ġsean": 1939,
      "TP": 1940,
      "idente": 1941,
      "bilidades": 1942,
      "ipeline": 1943,
      "line": 1944,
      "Ġhost": 1945,
      "ÃŃas": 1946,
      "Ġdebajo": 1947,
      "naps": 1948,
      "ĠOb": 1949,
      "ware": 1950,
      "napshot": 1951,
      "Ġdetectado": 1952,
      "Ġcampos": 1953,
      "Ġese": 1954,
      "ĠEnsamb": 1955,
      "ump": 1956,
      "Ġpivotear": 1957,
      "ĠEquival": 1958,
      "iendo": 1959,
      "ienza": 1960,
      "Ġdescuent": 1961,
      "ĠsesiÃ³n": 1962,
      "Ġpipeline": 1963,
      "mbas": 1964,
      "alidad": 1965,
      "Ġrequeri": 1966,
      "Ġcompila": 1967,
      "Es": 1968,
      "dero": 1969,
      "Ġfa": 1970,
      "ĠfallarÃ¡": 1971,
      "Ġshadowban": 1972,
      "Ġoff": 1973,
      "Ġhayas": 1974,
      "Ġejecute": 1975,
      "Ġvuel": 1976,
      "Ġpermita": 1977,
      "Ġreporte": 1978,
      "ĠG": 1979,
      "))]": 1980,
      "tante": 1981,
      "debug": 1982,
      "Ġcarac": 1983,
      "Ġoperativo": 1984,
      "Ġtratamiento": 1985,
      "conjunciÃ³n": 1986,
      "tivas": 1987,
      "Ġcomplej": 1988,
      "Ġpersis": 1989,
      "Ġping": 1990,
      ")),": 1991,
      "Ġ50": 1992,
      "dio": 1993,
      "ĠmÃ¡": 1994,
      "Ġhum": 1995,
      "Ġlocal": 1996,
      "ers": 1997,
      "Ġexclu": 1998,
      "Ġmaximiza": 1999,
      "Ġresponde": 2000,
      "Ġexitosa": 2001,
      "icaciÃ³n": 2002,
      "adores": 2003,
      "AF": 2004,
      "ting": 2005,
      "Ġpens": 2006,
      "ĠfunciÃ³n": 2007,
      "Ġprecio": 2008,
      "tivamente": 2009,
      "denciales": 2010,
      "Ġarchivo": 2011,
      "NS": 2012,
      "Ġcuent": 2013,
      "duci": 2014,
      "Ġmortales": 2015,
      "ĠEquivalentemente": 2016,
      "ras": 2017,
      "Ġinc": 2018,
      "Ġdump": 2019,
      "Ġcombina": 2020,
      "ĠWAF": 2021,
      "Ġinstancia": 2022,
      "Ġconjuntos": 2023,
      "Ġtipo": 2024,
      "hÃŃ": 2025,
      "Ġren": 2026,
      "ĠDNS": 2027,
      "Ġtoda": 2028,
      "ĠminÃºscula": 2029,
      "Ġprocede": 2030,
      "Ġcoincide": 2031,
      "ĠCuarto": 2032,
      "Ġelimin": 2033,
      "Ġcaracter": 2034,
      "Ġhuman": 2035,
      "Ġlado": 2036,
      "entonces": 2037,
      "Ġlimi": 2038,
      "solo": 2039,
      "ĠejecutarÃ¡": 2040,
      "Ġcer": 2041,
      "ferencias": 2042,
      "Ġfuncione": 2043,
      "Ġinmor": 2044,
      "Ġcompro": 2045,
      "Ġwhitelist": 2046,
      "Ġdescuento": 2047,
      "media": 2048,
      "medio": 2049,
      "Ġsiguiente": 2050,
      "Ġsnapshot": 2051,
      "Ġcredenciales": 2052,
      "ĠEnsamblo": 2053,
      "Ġimplem": 2054,
      "Ġindependientes": 2055,
      "ĠlegÃŃ": 2056,
      "ĠcaÃŃdo": 2057,
      "Ġprivilegios": 2058,
      "Ġtienes": 2059,
      "Ġrecursos": 2060,
      "Ġpuedes": 2061,
      "Ġformaliza": 2062,
      "Ġcuarta": 2063,
      "Ġhec": 2064,
      "Ġexploit": 2065,
      "TTP": 2066,
      "ie": 2067,
      "Ġmiemb": 2068,
      "ux": 2069,
      "inux": 2070,
      "estÃ¡": 2071,
      "Ġroot": 2072,
      "Ġinmortal": 2073,
      "dic": 2074,
      "tir": 2075,
      "rir": 2076,
      "Ġfallo": 2077,
      "Ġerrores": 2078,
      "ger": 2079,
      "ling": 2080,
      "organ": 2081,
      "Ġvulnerabilidades": 2082,
      "Ġpad": 2083,
      "Ġbypass": 2084,
      "Ġ30": 2085,
      "ĠMorgan": 2086,
      "nel": 2087,
      "ren": 2088,
      "read": 2089,
      "Ġactividad": 2090,
      "ĠvacÃŃo": 2091,
      "Ġhabi": 2092,
      "ĠmociÃ³n": 2093,
      "Ġsaniti": 2094,
      "Ġglobal": 2095,
      "cciÃ³n": 2096,
      "indica": 2097,
      "Ġmal": 2098,
      "Ġbinary": 2099,
      "Ġcompatible": 2100,
      "bla": 2101,
      "zaciÃ³n": 2102,
      "vers": 2103,
      "Ġmatch": 2104,
      "Ġescudero": 2105,
      "Ġcaracteres": 2106,
      "ecte": 2107,
      "Ġllamo": 2108,
      "aril": 2109,
      "Ġuso": 2110,
      "Ġamaril": 2111,
      "has": 2112,
      "tic": 2113,
      "Ġrecha": 2114,
      "ĠimplÃŃcita": 2115,
      "Ġexterno": 2116,
      "toco": 2117,
      "Ġpromedio": 2118,
      "aja": 2119,
      "kernel": 2120,
      "ejor": 2121,
      "pi": 2122,
      "Ġuno": 2123,
      "Ġrefle": 2124,
      "Ġvarias": 2125,
      "minos": 2126,
      "Ã¡r": 2127,
      "Ġmonto": 2128,
      "Ġrevi": 2129,
      "Ãºa": 2130,
      "Ġrepro": 2131,
      "Ġcance": 2132,
      "ĠminÃºsculas": 2133,
      "gos": 2134,
      "Ġdefecto": 2135,
      "Ġgrave": 2136,
      "Ġâī": 2137,
      "Ġover": 2138,
      "Ġhand": 2139,
      "ĠRevisar": 2140,
      "Ġoffline": 2141,
      "Ġeso": 2142,
      "ĠsuscripciÃ³n": 2143,
      "ĠdirecciÃ³n": 2144,
      "EL": 2145,
      "Ġkernel": 2146,
      "Ġsegundo": 2147,
      "ĠlegÃŃtimo": 2148,
      "Ġprotoco": 2149,
      "Ġ40": 2150,
      "Ġmulta": 2151,
      "UID": 2152,
      "ezca": 2153,
      "ectura": 2154,
      "rol": 2155,
      "Ġnove": 2156,
      "ĠactivaciÃ³n": 2157,
      "Ġpresidente": 2158,
      "Ġevitar": 2159,
      "Ġpartida": 2160,
      "bas": 2161,
      "Ġade": 2162,
      "making": 2163,
      "ÃŃnea": 2164,
      "Ġsospec": 2165,
      "ked": 2166,
      "Ġk": 2167,
      "Ġcasos": 2168,
      "Ġvotos": 2169,
      "ĠObser": 2170,
      "Ġcompilador": 2171,
      "ELinux": 2172,
      "falla": 2173,
      "tario": 2174,
      "ya": 2175,
      "Ġ7": 2176,
      "Ġ9": 2177,
      "Ġreint": 2178,
      "remos": 2179,
      "ĠWPA": 2180,
      "icio": 2181,
      "Ġlu": 2182,
      "Ġcontraindica": 2183,
      "Ġcumplan": 2184,
      "ĠningÃºn": 2185,
      "Ġexperimento": 2186,
      "Ġcuenta": 2187,
      "ig": 2188,
      "tegi": 2189,
      "Ġ22": 2190,
      "Ġprocesamiento": 2191,
      "Ġnegativa": 2192,
      "fÃ³rmula": 2193,
      "per": 2194,
      "zo": 2195,
      "ĠsubfÃ³rmula": 2196,
      "Ġprotocolo": 2197,
      "Ġlea": 2198,
      "Ġextra": 2199,
      "ĠSUID": 2200,
      "Ġcomprome": 2201,
      "Ġuti": 2202,
      "Ġestable": 2203,
      "Ġpresente": 2204,
      "Ġfuerza": 2205,
      "mposiciÃ³n": 2206,
      "lout": 2207,
      "Ġdebug": 2208,
      "Ġvuelta": 2209,
      "To": 2210,
      "Â°": 2211,
      "ess": 2212,
      "Ġlectura": 2213,
      "Ġcomienza": 2214,
      "ĠHTTP": 2215,
      "Ġescala": 2216,
      "Ġmatchmaking": 2217,
      "net": 2218,
      "zquier": 2219,
      "Ġizquier": 2220,
      "Ġliqui": 2221,
      "ĠvotaciÃ³n": 2222,
      "Ġranked": 2223,
      "Ġcircuit": 2224,
      "Ġenvi": 2225,
      "Ġintenta": 2226,
      "cuent": 2227,
      "ĠâĨĶ,": 2228,
      "Ġpreferencias": 2229,
      "termin": 2230,
      "cheat": 2231,
      "Ġ44": 2232,
      "Ġevita": 2233,
      "Ġdarse": 2234,
      "Ġ(Â¬).": 2235,
      "Ġsupere": 2236,
      "Ġesas": 2237,
      "Ġsil": 2238,
      "locidad": 2239,
      "ĠComposiciÃ³n": 2240,
      "Ġgrace": 2241,
      "Ġrefund": 2242,
      "hack": 2243,
      "dis": 2244,
      "ĠCI": 2245,
      "Ġrepresent": 2246,
      "Ġrollout": 2247,
      "Ġasegu": 2248,
      "Ġpositivo": 2249,
      "ĠUs": 2250,
      "Ġvelocidad": 2251,
      "ward": 2252,
      "Ġlista": 2253,
      "Ġmer": 2254,
      "Ġhace": 2255,
      "Ġactive": 2256,
      "Ġhayamos": 2257,
      "Ġobli": 2258,
      "ĠcrÃŃtica": 2259,
      "Ġperiod": 2260,
      "torio": 2261,
      "Ġrepar": 2262,
      "Ġformato": 2263,
      "Ġcualquier": 2264,
      "ete": 2265,
      "Ġsal": 2266,
      "Ġcola": 2267,
      "Ġentrar": 2268,
      "Ġbackward": 2269,
      "Ġacepta": 2270,
      "Ġape": 2271,
      "Ġcompletado": 2272,
      "Ġagre": 2273,
      "Ġdeman": 2274,
      "Ġmuestra": 2275,
      "titu": 2276,
      "Ġconsist": 2277,
      "ĠvehÃŃ": 2278,
      "Ġanteriores": 2279,
      "Ġexpira": 2280,
      "Ġdesactiv": 2281,
      "Ġdemanda": 2282,
      "Ġnorm": 2283,
      "ĠserÃŃa": 2284,
      "Ġexcepto": 2285,
      "Ġmantiene": 2286,
      "Ġrama": 2287,
      "Ġrepresentar": 2288,
      "box": 2289,
      "neces": 2290,
      "Ġequip": 2291,
      "ĠPre": 2292,
      "ĠtÃ©r": 2293,
      "Ġconsiderado": 2294,
      "Ġcommit": 2295,
      "Ġevento": 2296,
      "Ġhecho": 2297,
      "Ġefec": 2298,
      "todo": 2299,
      "Ġfunda": 2300,
      "Ġba": 2301,
      "cribir": 2302,
      "bilita": 2303,
      "Ġaudi": 2304,
      "Ġidemp": 2305,
      "ĠtransacciÃ³n": 2306,
      "Ġdevuelve": 2307,
      "puedes": 2308,
      "ĠAmbas": 2309,
      "lance": 2310,
      "negaciÃ³n": 2311,
      "Ġbaja": 2312,
      "Ġconsiderar": 2313,
      "Ġgratu": 2314,
      "Ġmalicioso": 2315,
      "ĠinversiÃ³n": 2316,
      "olo": 2317,
      "rge": 2318,
      "Ġcomplejidad": 2319,
      "ĠvehÃŃculo": 2320,
      "Ġpla": 2321,
      "Ġintentos": 2322,
      "Ġrojo": 2323,
      "edhack": 2324,
      "Ġhombre": 2325,
      "Ġeleg": 2326,
      "cuando": 2327,
      "Ġtokens": 2328,
      "Ġliquidez": 2329,
      "ke": 2330,
      "Ġabso": 2331,
      "ĠDesglosar": 2332,
      "ĠNO": 2333,
      "Ġrespuesta": 2334,
      "ĠtÃ©rminos": 2335,
      "Ġabsolu": 2336,
      "AM": 2337,
      "par": 2338,
      "sha": 2339,
      "Ġescribe": 2340,
      "istori": 2341,
      "eout": 2342,
      "Ġhora": 2343,
      "Ġalcanza": 2344,
      "Ġpadding": 2345,
      "shake": 2346,
      "istorial": 2347,
      "ible": 2348,
      "unque": 2349,
      "Ġmenciona": 2350,
      "Ġconductores": 2351,
      "implicaciÃ³n": 2352,
      "Ġmas": 2353,
      "alizado": 2354,
      "ĠNota": 2355,
      "Ġspeedhack": 2356,
      "ard": 2357,
      "Ġavan": 2358,
      "Ġment": 2359,
      "Ġlen": 2360,
      "tidor": 2361,
      "Ġhistorial": 2362,
      "Ġnecesitamos": 2363,
      "Ġviaje": 2364,
      "ĠDesgloso": 2365,
      "Ġbaneado": 2366,
      "Ġsospechos": 2367,
      "Ġrepartidor": 2368,
      "aut": 2369,
      "Ġsen": 2370,
      "fil": 2371,
      "Ġexista": 2372,
      "Ġhandshake": 2373,
      "Ġfundament": 2374,
      "ana": 2375,
      "eader": 2376,
      "Ġpasado": 2377,
      "Ġobser": 2378,
      "Ġadecu": 2379,
      "dbox": 2380,
      "sin": 2381,
      "Ġsandbox": 2382,
      "ĠinyecciÃ³n": 2383,
      "âĪ§": 2384,
      "Ġconoci": 2385,
      "ran": 2386,
      "Ġinicio": 2387,
      "eraciÃ³n": 2388,
      "Ġfallando": 2389,
      "lamÃ©mos": 2390,
      "Ġbloqueo": 2391,
      "Ġderecha": 2392,
      "Ġinstancias": 2393,
      "Ġter": 2394,
      "Ġenci": 2395,
      "Ġhabla": 2396,
      "lidad": 2397,
      "cep": 2398,
      "ĠmÃ©todo": 2399,
      "Ġrequisito": 2400,
      "ĠespecÃŃfica": 2401,
      "Ġhabitante": 2402,
      "hing": 2403,
      "ecer": 2404,
      "Ġsitu": 2405,
      "Ġinmedia": 2406,
      "Ġcapa": 2407,
      "Ġpriori": 2408,
      "Ġprecisa": 2409,
      "Ġespeci": 2410,
      "Ġmerge": 2411,
      "Ġvera": 2412,
      "Ġ(Â¬)": 2413,
      "foro": 2414,
      "guaje": 2415,
      "Ġaprobado": 2416,
      "Ġrequeridos": 2417,
      "Ġlenguaje": 2418,
      "uint": 2419,
      "Ġcanary": 2420,
      "ĠQuint": 2421,
      "Ġtimeout": 2422,
      "Ġcertifica": 2423,
      "Ġkm": 2424,
      "ĠaÃ±a": 2425,
      "Ġheader": 2426,
      "Ġdominio": 2427,
      "Ġcontin": 2428,
      "siva": 2429,
      "ĠSELinux": 2430,
      "Ġrestricciones": 2431,
      "ĠsemÃ¡foro": 2432,
      "Ġthread": 2433,
      "ĠsubfÃ³rmulas": 2434,
      "Ġ$": 2435,
      "Ġmov": 2436,
      "Ġjuego": 2437,
      "Ġrelaciona": 2438,
      "Ġmalware": 2439,
      "vera": 2440,
      "Ġunir": 2441,
      "encial": 2442,
      "Ġnuest": 2443,
      "Ġumb": 2444,
      "Ġexpon": 2445,
      "Ġpass": 2446,
      "ĠrestricciÃ³n": 2447,
      "Ġdifer": 2448,
      "Ġestado": 2449,
      "Ġfirm": 2450,
      "lici": 2451,
      "replicaciÃ³n": 2452,
      "ĠâĨĴ.": 2453,
      "ĠÂ¬(Â¬": 2454,
      "ĠEstas": 2455,
      "Ġusamos": 2456,
      "ĠmÃ©tr": 2457,
      "Ġvariables": 2458,
      "Ġmovimiento": 2459,
      "eta": 2460,
      "mas": 2461,
      "irus": 2462,
      "ivirus": 2463,
      "Ġpuerta": 2464,
      "Ġvisa": 2465,
      "Ġequipaje": 2466,
      "dr": 2467,
      "Ġuse": 2468,
      "sifica": 2469,
      "disyunciÃ³n": 2470,
      "Ġmentir": 2471,
      "scal": 2472,
      "Ġlle": 2473,
      "idados": 2474,
      "Ġrefuer": 2475,
      "scaling": 2476,
      "oral": 2477,
      "ĠactivarÃ¡": 2478,
      "Ġpueden": 2479,
      "Ġcompletamente": 2480,
      "Ġdescargado": 2481,
      "Ġpremisas": 2482,
      "Ġimplementa": 2483,
      "Ġ443": 2484,
      "ĠÂ¬.": 2485,
      "aremos": 2486,
      "ĠtÃŃ": 2487,
      "Ġviene": 2488,
      "Ġlogra": 2489,
      "usu": 2490,
      "Ġunivers": 2491,
      "Ġfav": 2492,
      "ĠQuinto": 2493,
      "ĠtÃŃp": 2494,
      "dy": 2495,
      "tock": 2496,
      "Ġencon": 2497,
      "Ġval": 2498,
      "Ġobtener": 2499,
      "uto": 2500,
      "Ġ<": 2501,
      "Ġantivirus": 2502,
      "Ġanidados": 2503,
      "Ġrecovery": 2504,
      "Ġauditor": 2505,
      "Ġumbral": 2506,
      "cr": 2507,
      "Ġrequests": 2508,
      "],": 2509,
      "Ġcos": 2510,
      "Ġpendi": 2511,
      "ĠlÃŃnea": 2512,
      "log": 2513,
      "Ġexcepcional": 2514,
      "Ġpasaporte": 2515,
      "Ġobliga": 2516,
      "eb": 2517,
      "Ġnegada": 2518,
      "Ġnuestro": 2519,
      "zon": 2520,
      "Ġsec": 2521,
      "Ġdeber": 2522,
      "Ġ[((": 2523,
      "ĠfilÃ³sofo": 2524,
      "Ġbody": 2525,
      "Ġbalance": 2526,
      "Ġlic": 2527,
      "Ġrevis": 2528,
      "Ġentrada": 2529,
      "Ġintento": 2530,
      "Ġcompletos": 2531,
      "ĠestÃ©n": 2532,
      "Ġejer": 2533,
      "Ġmanera": 2534,
      "Ġmigra": 2535,
      "off": 2536,
      "Ġdesactivado": 2537,
      "bicondicional": 2538,
      "mado": 2539,
      "ob": 2540,
      "pri": 2541,
      "Ġbloqueando": 2542,
      "Ġproducto": 2543,
      "ĠtÃ©cnicas": 2544,
      "Ġdistintos": 2545,
      "Ġemi": 2546,
      "Ġinten": 2547,
      "Ġmock": 2548,
      "Ġdeployar": 2549,
      "Ġredunda": 2550,
      "Ġsuperior": 2551,
      "Ġpersistencia": 2552,
      "Ġidempot": 2553,
      "usuario": 2554,
      "udo": 2555,
      "Ġmenudo": 2556,
      "illing": 2557,
      "Ġbackoff": 2558,
      "Ġexponencial": 2559,
      "Ġrefuerza": 2560,
      "ÃŃs": 2561,
      "Ġchecks": 2562,
      "Ġescritura": 2563,
      "Ġsilencia": 2564,
      "tarios": 2565,
      "tantes": 2566,
      "Ġdisponibilidad": 2567,
      "ĠuniÃ³n": 2568,
      "Ġleak": 2569,
      "viene": 2570,
      "Ġpatr": 2571,
      "Ġpers": 2572,
      "Ġcorre": 2573,
      "ĠSSH": 2574,
      "Ġhumano": 2575,
      "Todos": 2576,
      "Ġconsul": 2577,
      "ĠSQLi": 2578,
      "Ġdumpear": 2579,
      "Ġeliminado": 2580,
      "Ġfavor": 2581,
      "his": 2582,
      "lic": 2583,
      "Ġqueue": 2584,
      "Ġsoporte": 2585,
      "ĠNoto": 2586,
      "Ġnuevo": 2587,
      "Ġpruebas": 2588,
      "Ġlimiting": 2589,
      "hishing": 2590,
      "Ãļ": 2591,
      "Ġon": 2592,
      "Ġstock": 2593,
      "Ġencuent": 2594,
      "Ġbilling": 2595,
      "Ġprotegi": 2596,
      "pam": 2597,
      "Ġconsistente": 2598,
      "Ġphishing": 2599,
      "Ġparche": 2600,
      "Ġorigen": 2601,
      "ĠapelaciÃ³n": 2602,
      "LR": 2603,
      "ados": 2604,
      "Ġconduce": 2605,
      "Ġconjunto": 2606,
      "ĠfilÃ³sofos": 2607,
      "Ġprioridad": 2608,
      "Ġprobe": 2609,
      "ĠUso": 2610,
      "ĠinterpretaciÃ³n": 2611,
      "dicciÃ³n": 2612,
      "ĠPremium": 2613,
      "ĠsituaciÃ³n": 2614,
      "tter": 2615,
      "Ġinfra": 2616,
      "forma": 2617,
      "Ġgar": 2618,
      "Ġletter": 2619,
      "Ġdescalifica": 2620,
      "necesita": 2621,
      "doso": 2622,
      "Ã¡lido": 2623,
      "ĠoperaciÃ³n": 2624,
      "PN": 2625,
      "Ġ>": 2626,
      "Ġsolici": 2627,
      "Ġentrega": 2628,
      "Ġ90": 2629,
      "Ġidempotente": 2630,
      "CI": 2631,
      "IP": 2632,
      "ype": 2633,
      "Ġpost": 2634,
      "Ġdetermin": 2635,
      "Ġnecesidad": 2636,
      "Ġprimero": 2637,
      "ĠMejor": 2638,
      "Ġrecupera": 2639,
      "nicamente": 2640,
      "ertos": 2641,
      "Ġreal": 2642,
      "Ġretor": 2643,
      "ĠpolÃŃticas": 2644,
      "Ãļnicamente": 2645,
      "Ġtype": 2646,
      "Ġrealizar": 2647,
      "fli": 2648,
      "Ġsurge": 2649,
      "Ġalto": 2650,
      "Ġguar": 2651,
      "Ġdefinir": 2652,
      "Ġzona": 2653,
      "Ġutili": 2654,
      "Ġabsoluta": 2655,
      "Ġpen": 2656,
      "ĠâĪ¨.": 2657,
      "iste": 2658,
      "Ġinternet": 2659,
      "Ġadicionales": 2660,
      "Ġmisma": 2661,
      "ĠHTTPS": 2662,
      "menta": 2663,
      "ĠdÃŃas": 2664,
      "Ġdefinido": 2665,
      "Ġpresentes": 2666,
      "ĠmayÃºscula": 2667,
      "Ġradio": 2668,
      "Ġ->": 2669,
      "Ġizquierda": 2670,
      "Ġfundamental": 2671,
      "iva": 2672,
      "tienes": 2673,
      "ĠSegunda": 2674,
      "tmo": 2675,
      "delidad": 2676,
      "Ġabre": 2677,
      "tirÃ¡": 2678,
      "ĠusarÃ©": 2679,
      "oritmo": 2680,
      "Ġleer": 2681,
      "Ġsuper": 2682,
      "ĠescalaciÃ³n": 2683,
      "Ġalgoritmo": 2684,
      "Ġhasta": 2685,
      "ĠmÃ¡xi": 2686,
      "ĠComo": 2687,
      "Ġalguna": 2688,
      "Ġclaramente": 2689,
      "Ġvariable": 2690,
      "Ġsevera": 2691,
      "Ġprici": 2692,
      "ĠdÃ©": 2693,
      "Ġpuedo": 2694,
      "Ġexpul": 2695,
      "Ġfidelidad": 2696,
      "umer": 2697,
      "ducir": 2698,
      "ĠadministraciÃ³n": 2699,
      "Ġasum": 2700,
      "Ġnovedoso": 2701,
      "Ġespecifica": 2702,
      "Ġpricing": 2703,
      "Ġrevo": 2704,
      "ĠUI": 2705,
      "Ġnegaciones": 2706,
      "replication": 2707,
      "Ġsubdominio": 2708,
      "ĠObservo": 2709,
      "gar": 2710,
      "rador": 2711,
      "Ġmoderador": 2712,
      "Ġgratuito": 2713,
      "Ġgarant": 2714,
      "Ġadqui": 2715,
      "Ġmentiros": 2716,
      "FA": 2717,
      "ficar": 2718,
      "hbo": 2719,
      "lock": 2720,
      "dashbo": 2721,
      "Ġexcepciones": 2722,
      "Ġseparadas": 2723,
      "ĠpolÃŃtica": 2724,
      "Ġlibc": 2725,
      "dashboard": 2726,
      "Ġusan": 2727,
      "Ġpremisa": 2728,
      "Ġregistrado": 2729,
      "Ġdocumento": 2730,
      "Ġcomprometido": 2731,
      "Ġcorreo": 2732,
      ")'": 2733,
      "aciones": 2734,
      "ĠcrÃŃticas": 2735,
      "Ġcircuito": 2736,
      "Ġai": 2737,
      "Ġnecesarios": 2738,
      "Ġtengas": 2739,
      "Ġrout": 2740,
      "etfli": 2741,
      "Ġvientos": 2742,
      "Ġreportes": 2743,
      "Ġformando": 2744,
      "ĠNetfli": 2745,
      "Ġsudoers": 2746,
      "ĠaÃ±ade": 2747,
      "ĠNetflix": 2748,
      "]'.": 2749,
      "bri": 2750,
      "Ġsa": 2751,
      "low": 2752,
      "Ġhorario": 2753,
      "ring": 2754,
      "tica": 2755,
      "Ġrees": 2756,
      "elig": 2757,
      "Ġhabilita": 2758,
      "Ġweb": 2759,
      "fix": 2760,
      "Ġreportado": 2761,
      "AC": 2762,
      "ono": 2763,
      "dido": 2764,
      "Ġlint": 2765,
      "luciÃ³n": 2766,
      "Ġchan": 2767,
      "Ġcarga": 2768,
      "Ġprocesar": 2769,
      "Ġganador": 2770,
      "SS": 2771,
      "Ġreso": 2772,
      "ĠexpresiÃ³n": 2773,
      "Ġreporta": 2774,
      "Ġsimples": 2775,
      "Ġincor": 2776,
      "ok": 2777,
      "ĠEx": 2778,
      "Ġof": 2779,
      "ĠenvÃŃa": 2780,
      "ĠconfirmaciÃ³n": 2781,
      "Ġdic": 2782,
      "ĠASCI": 2783,
      "Ġinmediatamente": 2784,
      "ĠASCII": 2785,
      "Ã©plica": 2786,
      "Ġ200": 2787,
      "Ġ(âĪ¨),": 2788,
      "ĠrevisiÃ³n": 2789,
      "ificando": 2790,
      "ĠVPN": 2791,
      "Ġoperaciones": 2792,
      "Ġhombres": 2793,
      "Ġcancela": 2794,
      "ĠrÃ©plica": 2795,
      "Ġcaus": 2796,
      "Ġafecta": 2797,
      "Ã±o": 2798,
      "Ġdeseado": 2799,
      "debugging": 2800,
      "Solo": 2801,
      "ĠK": 2802,
      "Ġhot": 2803,
      "ĠexplÃŃcito": 2804,
      "uestre": 2805,
      "Ġhotfix": 2806,
      "car": 2807,
      "flow": 2808,
      "Ġdashboard": 2809,
      "tivos": 2810,
      "eremos": 2811,
      "Ġoverflow": 2812,
      "Ġsensi": 2813,
      "sh": 2814,
      "Ġms": 2815,
      "Ġmu": 2816,
      "Ġotros": 2817,
      "ĠlÃ³gico": 2818,
      "Ġdetecte": 2819,
      "Ġqueremos": 2820,
      "rollback": 2821,
      "Ġchange": 2822,
      "sito": 2823,
      "ĠâĨĶ.": 2824,
      "Ġdebes": 2825,
      "Ġdan": 2826,
      "Ġlogs": 2827,
      "Ġrecomendado": 2828,
      "ffer": 2829,
      "gres": 2830,
      "Ġdeci": 2831,
      "tima": 2832,
      "ienda": 2833,
      "Ġ(âĨĶ),": 2834,
      "Ġbuffer": 2835,
      "Ġsnapshots": 2836,
      "Ġvalor": 2837,
      "Ġconsultas": 2838,
      "tividad": 2839,
      "alizaciÃ³n": 2840,
      "ĠCada": 2841,
      "gia": 2842,
      "Ġbypasseado": 2843,
      "Ġrestring": 2844,
      "Ġveraz": 2845,
      "ĠtÃŃpicamente": 2846,
      "Ġaunque": 2847,
      "Ġdeaut": 2848,
      "entro": 2849,
      "ularidad": 2850,
      "Ġbloquee": 2851,
      "Ġspam": 2852,
      "ĠAl": 2853,
      "Ġalgo": 2854,
      "cing": 2855,
      "Ġenfor": 2856,
      "Ġsola": 2857,
      "Ġverificado": 2858,
      "Ġluz": 2859,
      "Ġelegible": 2860,
      "Ġlicencia": 2861,
      "Ġenforcing": 2862,
      "mera": 2863,
      "pon": 2864,
      "umula": 2865,
      "Ġ].": 2866,
      "Ġcalifica": 2867,
      "dores": 2868,
      "Ġfalli": 2869,
      "Ġpasar": 2870,
      "Ġcombinar": 2871,
      "Ġmiembros": 2872,
      "Ġbalanceador": 2873,
      "Ġfin": 2874,
      "))))<|": 2875,
      "Ġsoy": 2876,
      "Ġfalle": 2877,
      "uplica": 2878,
      "Ġprueba": 2879,
      "ly": 2880,
      "renda": 2881,
      "Ġ[Â¬": 2882,
      "Ġcapture": 2883,
      "Ġunitarios": 2884,
      "Ġvig": 2885,
      "ĠinvÃ¡lido": 2886,
      "Ġarrenda": 2887,
      "fa": 2888,
      "the": 2889,
      "Ġigu": 2890,
      "trado": 2891,
      "Ġdebemos": 2892,
      "ĠSexto": 2893,
      "ĠespecÃŃfico": 2894,
      "dmin": 2895,
      "mar": 2896,
      "otear": 2897,
      "ĠÃºn": 2898,
      "Ġsens": 2899,
      "Ġpropina": 2900,
      "ĠÂ¬(((": 2901,
      "Ġhook": 2902,
      "Ġdeadlock": 2903,
      "Ġuniversal": 2904,
      "Ġsensor": 2905,
      "%'": 2906,
      "ficamente": 2907,
      "win": 2908,
      "Ġpunt": 2909,
      "Ġtwin": 2910,
      "radas": 2911,
      "ĠÂ¬,": 2912,
      "Ġlogue": 2913,
      "Ġserie": 2914,
      "Ġcompon": 2915,
      "Ġsignificado": 2916,
      "ĠexplotaciÃ³n": 2917,
      "Ġevil": 2918,
      "Ġmulti": 2919,
      "ĠnotificaciÃ³n": 2920,
      "ĠASLR": 2921,
      "Ġamarillas": 2922,
      "ĠauditorÃŃa": 2923,
      "Ġcosto": 2924,
      "side": 2925,
      "ĠvÃ¡lidos": 2926,
      "Ġlevant": 2927,
      "Ġresulta": 2928,
      "Ġespecial": 2929,
      "Ġpensador": 2930,
      "Ġ~": 2931,
      "dir": 2932,
      "Ġmos": 2933,
      "anza": 2934,
      "Ġexist": 2935,
      "mbot": 2936,
      "ĠSimplificando": 2937,
      "sufici": 2938,
      "necesitas": 2939,
      "llamÃ©mos": 2940,
      "Ġdem": 2941,
      "Ġveces": 2942,
      "Ġescalar": 2943,
      "Ġalcanzado": 2944,
      "Ġexperiment": 2945,
      "Ġvigente": 2946,
      "Ġigual": 2947,
      "%,": 2948,
      "stencia": 2949,
      "uta": 2950,
      "eren": 2951,
      "orta": 2952,
      "Ġexfil": 2953,
      "Ġobtiene": 2954,
      "Ġspear": 2955,
      "dan": 2956,
      "asa": 2957,
      "ositivo": 2958,
      "Ġexiste": 2959,
      "Ġrelacionadas": 2960,
      "Ġaimbot": 2961,
      "ĠAlterna": 2962,
      "eja": 2963,
      "ique": 2964,
      "pita": 2965,
      "Ġdevo": 2966,
      "turado": 2967,
      "Ġapp": 2968,
      "Ġcif": 2969,
      "Ġalertas": 2970,
      "Ġsubcondiciones": 2971,
      "Ġtarjetas": 2972,
      "hash": 2973,
      "Ġcertificado": 2974,
      "Ġpos": 2975,
      "enci": 2976,
      "entras": 2977,
      "Ġgi": 2978,
      "Ġintroduci": 2979,
      "ĠexplÃŃcita": 2980,
      "Ġsecund": 2981,
      "Ġdiver": 2982,
      "Ġconsidere": 2983,
      "Ġidentificados": 2984,
      "mentada": 2985,
      "ĠAlternativamente": 2986,
      "ĠseÃ±": 2987,
      "Ġbit": 2988,
      "Ġaler": 2989,
      "Ġ24": 2990,
      "Ġninguna": 2991,
      "Ġguardi": 2992,
      "ĠmÃ¡ximo": 2993,
      "Ġrouter": 2994,
      "luc": 2995,
      "lack": 2996,
      "))].": 2997,
      "tenga": 2998,
      "Ġsino": 2999,
      "Ġlisto": 3000,
      "Ġescribir": 3001,
      "Ġperiodo": 3002,
      "Ġpopular": 3003,
      "Ġpopularidad": 3004,
      "gula": 3005,
      "Ġvent": 3006,
      "aria": 3007,
      "Ġmensu": 3008,
      "Ġdescri": 3009,
      "Ġprocesado": 3010,
      "Ġconfirm": 3011,
      "Ġescenario": 3012,
      "Ġdeauth": 3013,
      "DR": 3014,
      "at": 3015,
      "kat": 3016,
      "Ġincu": 3017,
      "Ġcomplejo": 3018,
      "Ġcambi": 3019,
      "Ġnecesariamente": 3020,
      "imikat": 3021,
      "get": 3022,
      "ĠcrÃŃticos": 3023,
      "Ġprogramado": 3024,
      "Ġprecipita": 3025,
      "Ġâī¡": 3026,
      "imikatz": 3027,
      "âĤ": 3028,
      "Ġasu": 3029,
      "Ġvalide": 3030,
      "ĠemitirÃ¡": 3031,
      "ĠrecuperaciÃ³n": 3032,
      "AP": 3033,
      "imos": 3034,
      "Ġanaliz": 3035,
      "eness": 3036,
      "Ġflu": 3037,
      "Ġliv": 3038,
      "sign": 3039,
      "Ġalma": 3040,
      "ienes": 3041,
      "usto": 3042,
      "Ġcomando": 3043,
      "Ġclic": 3044,
      "Ġinterpretarse": 3045,
      "Ġcontrola": 3046,
      "idado": 3047,
      "venciÃ³n": 3048,
      "Ġliveness": 3049,
      "Puedes": 3050,
      "tri": 3051,
      "tÃºa": 3052,
      "ĠÃ¡r": 3053,
      "Ġear": 3054,
      "Ġestric": 3055,
      "Ġresuel": 3056,
      "Ġvez": 3057,
      "Ġviento": 3058,
      "Ġlograr": 3059,
      "Ġestableci": 3060,
      "ĠÃ¡rbi": 3061,
      "Ġearly": 3062,
      "Ġsepar": 3063,
      "Ġenf": 3064,
      "Ġdisy": 3065,
      "Ġpagos": 3066,
      "Ġdispositivo": 3067,
      "ĠTercera": 3068,
      "toria": 3069,
      "):": 3070,
      "100": 3071,
      "ide": 3072,
      "Ġrein": 3073,
      "Ġrever": 3074,
      "ĠbÃ¡s": 3075,
      "Ġacto": 3076,
      "Ġindicando": 3077,
      "Ġtransi": 3078,
      "terial": 3079,
      "Ġlevantado": 3080,
      "Ġinvali": 3081,
      "ĠÃºltimo": 3082,
      "Ġfactor": 3083,
      "Ġagrega": 3084,
      "Ġsy": 3085,
      "ectar": 3086,
      "Ġprot": 3087,
      "Ġduplica": 3088,
      "Ġrestau": 3089,
      "ĠmÃ©trica": 3090,
      "Ġchecksum": 3091,
      "var": 3092,
      "end": 3093,
      "Ġparece": 3094,
      "ĠAsegu": 3095,
      "Ġdato": 3096,
      "Ġcomporta": 3097,
      "Ġliber": 3098,
      "Ġpensadores": 3099,
      "ĠcontraindicaciÃ³n": 3100,
      "Por": 3101,
      "plo": 3102,
      "Ġidentific": 3103,
      "ĠEDR": 3104,
      "Ġbran": 3105,
      "Ġley": 3106,
      "ĠHPA": 3107,
      "Ġregion": 3108,
      "Ġnatur": 3109,
      "ĠinfracciÃ³n": 3110,
      "Ġbranch": 3111,
      "ni": 3112,
      "puÃ©s": 3113,
      "Ã¡me": 3114,
      "Ġacumula": 3115,
      "ĠsegÃºn": 3116,
      "Ġreplica": 3117,
      "Ġtienen": 3118,
      "Ġexistentes": 3119,
      "jar": 3120,
      "ĠmÃ³": 3121,
      "Ġitem": 3122,
      "Ġnoche": 3123,
      "))))": 3124,
      "icode": 3125,
      "ĠUnicode": 3126,
      "Ġ150": 3127,
      "Ġdiversifica": 3128,
      "Ġemite": 3129,
      "lares": 3130,
      "Ġqueda": 3131,
      "ĠSM": 3132,
      "Ġsegmento": 3133,
      "Ġfibri": 3134,
      "Ġauric": 3135,
      "ĠfibrilaciÃ³n": 3136,
      "Ġauricular": 3137,
      "Ġcri": 3138,
      "Ġtasa": 3139,
      "Ġblack": 3140,
      "Ġinternacional": 3141,
      "Ġdocumentada": 3142,
      "Ġalmacen": 3143,
      "fac": 3144,
      "Ġgo": 3145,
      "debe": 3146,
      "Ġpartido": 3147,
      "Ġinsufici": 3148,
      "Ġmanip": 3149,
      "comp": 3150,
      "Ġinclusiva": 3151,
      "ĠautomÃ¡tica": 3152,
      "Ġrango": 3153,
      "Ġreescribir": 3154,
      "Ġgiro": 3155,
      "sto": 3156,
      "tre": 3157,
      "Ġellas": 3158,
      "Ġpropi": 3159,
      "podemos": 3160,
      "Ġconjuntamente": 3161,
      "Ġrenal": 3162,
      "Ġblacklist": 3163,
      "tur": 3164,
      "ĠactÃºa": 3165,
      "Ġocurrir": 3166,
      "Ġconsistencia": 3167,
      "Ġsuperadmin": 3168,
      "Ġcomun": 3169,
      "ĠexplÃŃcitas": 3170,
      "seguir": 3171,
      "Ġplazo": 3172,
      "Ġmentiroso": 3173,
      "ĠrÃ©plicas": 3174,
      "blica": 3175,
      "Ġtorm": 3176,
      "Ġsever": 3177,
      "Ġocu": 3178,
      "ĠPa": 3179,
      "vier": 3180,
      "Ġpresup": 3181,
      "Ġstack": 3182,
      "hibi": 3183,
      "Ġfirmado": 3184,
      "Ġtormenta": 3185,
      "Ġocul": 3186,
      "damos": 3187,
      "Ġdeclarado": 3188,
      "Ġmigration": 3189,
      "Ġexperimental": 3190,
      "Ã¡m": 3191,
      "Ġperman": 3192,
      "Ġpuertos": 3193,
      "Ġcomportamiento": 3194,
      "vierte": 3195,
      "Ġfu": 3196,
      "Ġproviene": 3197,
      "sear": 3198,
      "ĠpaÃŃs": 3199,
      "able": 3200,
      "Ġrealiza": 3201,
      "Ġinforma": 3202,
      "Ġcuidado": 3203,
      "Ġdirecto": 3204,
      "Ġrob": 3205,
      "Ġconfianza": 3206,
      "pecÃŃficamente": 3207,
      "ĠopciÃ³n": 3208,
      "Ġseveridad": 3209,
      "Ġinvo": 3210,
      "quina": 3211,
      "acto": 3212,
      "ĠIAM": 3213,
      "ĠDentro": 3214,
      "Ġbicondicionales": 3215,
      "Ġcompuesto": 3216,
      "Ġpermitir": 3217,
      "Ġquint": 3218,
      "Ġimpacto": 3219,
      "Ġcampo": 3220,
      "Ġmiembro": 3221,
      "Ġcero": 3222,
      "eros": 3223,
      "Ġmuestre": 3224,
      "Ġlug": 3225,
      "Ġcondicion": 3226,
      "Ġfallan": 3227,
      "ruta": 3228,
      "Ġhash": 3229,
      "Ġsensibles": 3230,
      "Ġseparado": 3231,
      "Ġlugar": 3232,
      "Dut": 3233,
      "Ġsati": 3234,
      "ĠEspecÃŃficamente": 3235,
      "Ġclaro": 3236,
      "Ġincre": 3237,
      "gerDut": 3238,
      "ĠseÃ±al": 3239,
      "Ġmensual": 3240,
      "ĠPagerDut": 3241,
      "Ġsatis": 3242,
      "ĠPagerDuty": 3243,
      "sado": 3244,
      "Ġsalida": 3245,
      "Ġnotari": 3246,
      "ele": 3247,
      "ĠlÃ³gicas": 3248,
      "lution": 3249,
      "ĠintervenciÃ³n": 3250,
      "Ġconsiderada": 3251,
      "ĠrecomendaciÃ³n": 3252,
      "Ġescena": 3253,
      "Ġresolution": 3254,
      "Has": 3255,
      "jec": 3256,
      "Ġsiendo": 3257,
      "Ġenla": 3258,
      "Ġparch": 3259,
      "lique": 3260,
      "Ġdesci": 3261,
      "Ġtol": 3262,
      "tenemos": 3263,
      "Ġadver": 3264,
      "eries": 3265,
      "Ġanida": 3266,
      "Ġqueries": 3267,
      "tenerse": 3268,
      "ĠsemÃ¡nt": 3269,
      "Ġsanitizada": 3270,
      "Ġejerce": 3271,
      "Ġretorna": 3272,
      "Ġpresupuesto": 3273,
      "Ġ\"": 3274,
      "Ġesper": 3275,
      "erra": 3276,
      "Ġconvierte": 3277,
      "ĠfÃ³rmulas": 3278,
      "Ġmantengo": 3279,
      "Ġpodremos": 3280,
      "Ġchecking": 3281,
      "ĠOtra": 3282,
      "ĠalgÃºn": 3283,
      "Ġescrito": 3284,
      "Ġcifrado": 3285,
      "ĠÃ¡rbitro": 3286,
      "Ġderi": 3287,
      "Ġrompa": 3288,
      "Ġmodificar": 3289,
      "ĠimplÃŃcito": 3290,
      "Ġgaranti": 3291,
      "Ġrestringido": 3292,
      "Ġintroducida": 3293,
      "ĠLlam": 3294,
      "Ġpromo": 3295,
      "Ġverificar": 3296,
      "Ġpodamos": 3297,
      "Ġrootear": 3298,
      "Ġqui": 3299,
      "ferencia": 3300,
      "Ġamarilla": 3301,
      "Ġtermin": 3302,
      "Ġlogueado": 3303,
      "WT": 3304,
      "ios": 3305,
      "esta": 3306,
      "ĠelecciÃ³n": 3307,
      "Ġinput": 3308,
      "ĠInt": 3309,
      "minios": 3310,
      "Ġmaterial": 3311,
      "ĠJWT": 3312,
      "ĠmÃ¡quina": 3313,
      "ĠExtra": 3314,
      "yentes": 3315,
      "inÃ¡m": 3316,
      "ĠdinÃ¡m": 3317,
      "demand": 3318,
      "stem": 3319,
      "Ġtratar": 3320,
      "Ġrequer": 3321,
      "Ġunitari": 3322,
      "ĠmÃ©dica": 3323,
      "CD": 3324,
      "Ġcru": 3325,
      "Ġtip": 3326,
      "Ġsimi": 3327,
      "Ġmimikatz": 3328,
      "Ġresto": 3329,
      "Ġconexiones": 3330,
      "Ġassign": 3331,
      "Ġmass": 3332,
      "ĠpatrÃ³n": 3333,
      "Ġassignment": 3334,
      "[(": 3335,
      "ual": 3336,
      "Ġ...": 3337,
      "Ġpelig": 3338,
      "Ġpron": 3339,
      "Ġtengamos": 3340,
      "Ġdeployment": 3341,
      "Ġtemporal": 3342,
      "Ġactualiza": 3343,
      "Ġseparada": 3344,
      "Ġdebugger": 3345,
      "Ġencima": 3346,
      "Ġenlace": 3347,
      "ne": 3348,
      "Ġsue": 3349,
      "ase": 3350,
      "ĠPro": 3351,
      "uestos": 3352,
      "Ġjugadores": 3353,
      "Ġviaj": 3354,
      "olÃ³g": 3355,
      "Ġexpulsado": 3356,
      "Ġinsuficiencia": 3357,
      "Ġincrement": 3358,
      "mienda": 3359,
      "Ġenmienda": 3360,
      "ĠContin": 3361,
      "Ġtransitorio": 3362,
      "Ġinvoluc": 3363,
      "Tienes": 3364,
      "xt": 3365,
      "Ġcent": 3366,
      "Ġbeta": 3367,
      "Ġbruta": 3368,
      "maco": 3369,
      "ride": 3370,
      "ienen": 3371,
      "eada": 3372,
      "Ġrespal": 3373,
      "Ġmaneja": 3374,
      "ĠcomÃºn": 3375,
      "ostica": 3376,
      "Ã¡rmaco": 3377,
      "bloque": 3378,
      "secue": 3379,
      "Ġ|": 3380,
      "Ġdeli": 3381,
      "Ġellos": 3382,
      "diciÃ³n": 3383,
      "ime": 3384,
      "Ã¡ndo": 3385,
      "Ġopti": 3386,
      "Ġrespon": 3387,
      "Ġcapacidad": 3388,
      "Ġsystem": 3389,
      "Ġsuele": 3390,
      "%',": 3391,
      "Ex": 3392,
      "tico": 3393,
      "wn": 3394,
      "ĠmoderaciÃ³n": 3395,
      "Ġasegura": 3396,
      "Ġprotegida": 3397,
      "Ġresultados": 3398,
      "llamÃ©moslo": 3399,
      "Ġalergia": 3400,
      "Ġtipos": 3401,
      "AS": 3402,
      "ores": 3403,
      "ĠfÃ¡rmaco": 3404,
      "Ġinf": 3405,
      "Ġpropie": 3406,
      "luvi": 3407,
      "Ġtesting": 3408,
      "Ġpermiso": 3409,
      "Ġpaquetes": 3410,
      "mitÃ©": 3411,
      "ducible": 3412,
      "Ġreproducible": 3413,
      "Ġintensa": 3414,
      "ĠinformaciÃ³n": 3415,
      "Ġdelivery": 3416,
      "agula": 3417,
      "bu": 3418,
      "nas": 3419,
      "ytic": 3420,
      "Ġcra": 3421,
      "Ġaj": 3422,
      "alytic": 3423,
      "Ġdia": 3424,
      "Ġacces": 3425,
      "icoagula": 3426,
      "Ġjunto": 3427,
      "ĠTo": 3428,
      "Ġproceda": 3429,
      "âĤĤ": 3430,
      "Ġcrack": 3431,
      "alytics": 3432,
      "ris": 3433,
      "sas": 3434,
      "Ġdeno": 3435,
      "orolÃ³g": 3436,
      "Ġmete": 3437,
      "Ġfirma": 3438,
      "anel": 3439,
      "sion": 3440,
      "Ġintentar": 3441,
      "Ġposibilidad": 3442,
      "Ġnuev": 3443,
      "Ġredundante": 3444,
      "Ġmutu": 3445,
      "compon": 3446,
      "Ġfuera": 3447,
      "ĠmeteorolÃ³g": 3448,
      "OP": 3449,
      "indo": 3450,
      "Ġunen": 3451,
      "Ġhori": 3452,
      "Ġextre": 3453,
      "Ġintera": 3454,
      "Ġjob": 3455,
      "Ġmantienen": 3456,
      "unty": 3457,
      "Ġreciente": 3458,
      "Ġactualizado": 3459,
      "explo": 3460,
      "Ġbounty": 3461,
      "Ġadecuada": 3462,
      "Ġpronostica": 3463,
      "indow": 3464,
      "Ġhorizon": 3465,
      "erpre": 3466,
      "ĠcomitÃ©": 3467,
      "Ġgad": 3468,
      "ĠDefinimos": 3469,
      "Ġllamaremos": 3470,
      "Ġdispara": 3471,
      "ĠPrimera": 3472,
      "Ġrecibir": 3473,
      "Ġusados": 3474,
      "Ġsimplicidad": 3475,
      "Ġsiguientes": 3476,
      "Ã¡metro": 3477,
      "Ġmanipula": 3478,
      "Ġgadget": 3479,
      "ew": 3480,
      "nsito": 3481,
      "Ġenumer": 3482,
      "Ġcober": 3483,
      "Ġrealidad": 3484,
      "quest": 3485,
      "Ġcron": 3486,
      "Ġ((((": 3487,
      "ĠtrÃ¡nsito": 3488,
      "Ġlistado": 3489,
      "venir": 3490,
      "ĠUsarÃ©": 3491,
      "Ġpenal": 3492,
      "API": 3493,
      "Ġcobertura": 3494,
      "nos": 3495,
      "vaciÃ³n": 3496,
      "iness": 3497,
      "enden": 3498,
      "Ġanticoagula": 3499,
      "Ġconstantes": 3500,
      "Ġmantenga": 3501,
      "Ġapropi": 3502,
      "Ġcomete": 3503,
      "Ġpertenezca": 3504,
      "Ġidentidad": 3505,
      "Ġperson": 3506,
      "Ġquinta": 3507,
      "IN": 3508,
      "Los": 3509,
      "adas": 3510,
      "Ġis": 3511,
      "ismo": 3512,
      "dentes": 3513,
      "Ġresci": 3514,
      "consecue": 3515,
      "Ġsegura": 3516,
      "Ġmientras": 3517,
      "Ġactual": 3518,
      "Ġsubdominios": 3519,
      "Ġunitarias": 3520,
      "itar": 3521,
      "Ġlluvi": 3522,
      "tud": 3523,
      "code": 3524,
      "ĠcontradicciÃ³n": 3525,
      "Ġincluir": 3526,
      "Ġgracia": 3527,
      "Ġsustitu": 3528,
      "Ġshellcode": 3529,
      "Ġencontrar": 3530,
      "Ġpendiente": 3531,
      "Ġparcheado": 3532,
      "Ġincumpl": 3533,
      "Ġnaturales": 3534,
      "YC": 3535,
      "Ġefecto": 3536,
      "Ġconcur": 3537,
      "Ġprohibi": 3538,
      "ĠSon": 3539,
      "leg": 3540,
      "Ġ(Â¬),": 3541,
      "Ġconsecuencias": 3542,
      "Ġmismos": 3543,
      "pora": 3544,
      "ĠviolaciÃ³n": 3545,
      "Ġtercios": 3546,
      "Ġdescalificado": 3547,
      "Ġexfiltrar": 3548,
      "ĠreplicaciÃ³n": 3549,
      "Ġconcurr": 3550,
      "Ten": 3551,
      "Ġpeat": 3552,
      "Ġrequieren": 3553,
      "ĠTra": 3554,
      "Ġlimp": 3555,
      "Ġconflic": 3556,
      "Ġpertenencia": 3557,
      "Ġdespliega": 3558,
      "Ġrechaza": 3559,
      "logÃŃa": 3560,
      "Ġventana": 3561,
      "Ġpeatones": 3562,
      "ecu": 3563,
      "Ġcompletar": 3564,
      "Ġcorrespon": 3565,
      "Ġrefleja": 3566,
      "Ġreintentos": 3567,
      "Ġprecisamente": 3568,
      "Ġpendientes": 3569,
      "Ġenumerado": 3570,
      "bin": 3571,
      "Ġlab": 3572,
      "Ġread": 3573,
      "quiera": 3574,
      "acle": 3575,
      "Ġjunt": 3576,
      "Ġoracle": 3577,
      "etario": 3578,
      "Ġprocesa": 3579,
      "Ġaparezca": 3580,
      "ĠprotecciÃ³n": 3581,
      "Ġpropietario": 3582,
      "Pero": 3583,
      "Ġconce": 3584,
      "Ġvin": 3585,
      "Ġcusto": 3586,
      "ducciÃ³n": 3587,
      "Ġmano": 3588,
      "Ġsincr": 3589,
      "Ġdeclara": 3590,
      "ĠXSS": 3591,
      "Ġoverride": 3592,
      "Ġpanel": 3593,
      "Ġdetenerse": 3594,
      "dop": 3595,
      "teg": 3596,
      "fique": 3597,
      "ĠautomÃ¡ticos": 3598,
      "ĠConside": 3599,
      "Ġarbi": 3600,
      "Ġlanzar": 3601,
      "Ġautorizado": 3602,
      "ĠprocederÃ¡": 3603,
      "Ġregional": 3604,
      "Ġalmacenamiento": 3605,
      "Ġdesciende": 3606,
      "ord": 3607,
      "Ġindi": 3608,
      "Ã©p": 3609,
      "Ġocurri": 3610,
      "Ġtauto": 3611,
      "Ġpalabras": 3612,
      "Ġbackend": 3613,
      "ĠMFA": 3614,
      "Ġproceder": 3615,
      "Ġdesempate": 3616,
      "ĠliberaciÃ³n": 3617,
      "Ġrevocado": 3618,
      "ĠKYC": 3619,
      "Ġreverse": 3620,
      "Ġrequerido": 3621,
      "TF": 3622,
      "met": 3623,
      "¼e": 3624,
      "Ã¼e": 3625,
      "Ġadop": 3626,
      "econ": 3627,
      "Ġestim": 3628,
      "Ġimposi": 3629,
      "Ġalternativo": 3630,
      "Ġexcluyentes": 3631,
      "Ġcontraindicaciones": 3632,
      "Ġconocido": 3633,
      "ĠdevoluciÃ³n": 3634,
      "Ġmutuamente": 3635,
      "Ġlluvia": 3636,
      "Ġvincula": 3637,
      "Ġadopter": 3638,
      "Ġestimado": 3639,
      "Ġeva": 3640,
      "Ġconseguir": 3641,
      "Ġdesglos": 3642,
      "untando": 3643,
      "Ġtamp": 3644,
      "Ġafeitan": 3645,
      "Ġalternativas": 3646,
      "ĠSMB": 3647,
      "Ġrobusto": 3648,
      "';": 3649,
      "mal": 3650,
      "inclu": 3651,
      "Ġnomb": 3652,
      "Ġingres": 3653,
      "Ġacuer": 3654,
      "Ġsof": 3655,
      "Ġrazon": 3656,
      "Ġadquirir": 3657,
      "Ġrazonamiento": 3658,
      "YN": 3659,
      "Ġconec": 3660,
      "Ġelector": 3661,
      "ĠSYN": 3662,
      "Ġcorpora": 3663,
      "ĠconfiguraciÃ³n": 3664,
      "ĠimplÃŃcitamente": 3665,
      "Ġrespaldo": 3666,
      "'/": 3667,
      "En": 3668,
      "grado": 3669,
      "Ġsali": 3670,
      "Ġano": 3671,
      "ĠseÃ±a": 3672,
      "ĠcuÃ¡ndo": 3673,
      "Ġsuf": 3674,
      "Ġacciones": 3675,
      "Ġaplique": 3676,
      "Ġtercer": 3677,
      "deploy": 3678,
      "Ġejecutable": 3679,
      "Ġexpire": 3680,
      "Ġdefinidos": 3681,
      "stico": 3682,
      "Ġrelaciones": 3683,
      "Ġescenarios": 3684,
      "ĠrepresentaciÃ³n": 3685,
      "Ġlogras": 3686,
      "Ġcomponentes": 3687,
      "ms": 3688,
      "asiÃ³n": 3689,
      "Ġexceso": 3690,
      "Ġpasen": 3691,
      "Ġcumpliendo": 3692,
      "excep": 3693,
      "ĠÃºnica": 3694,
      "Ġlaboral": 3695,
      "Ġsincroni": 3696,
      "->": 3697,
      "CP": 3698,
      "Una": 3699,
      "Ġaso": 3700,
      "Ġhan": 3701,
      "Ġjus": 3702,
      "ĠTCP": 3703,
      "Siempre": 3704,
      "ĠOK": 3705,
      "heus": 3706,
      "Ġcombino": 3707,
      "Ġreintentar": 3708,
      "Ġ<->": 3709,
      "Ġsilenciamiento": 3710,
      "Ġhashes": 3711,
      "Ġsatisfac": 3712,
      "metheus": 3713,
      "24": 3714,
      "De": 3715,
      "caciÃ³n": 3716,
      "vÃ©s": 3717,
      "ĠaÃºn": 3718,
      "Ġ'(": 3719,
      "ĠROP": 3720,
      "porque": 3721,
      "ĠclÃ¡usulas": 3722,
      "terios": 3723,
      "Ġcriterios": 3724,
      "ĠPrometheus": 3725,
      "ĠseÃ±ala": 3726,
      "cos": 3727,
      "pu": 3728,
      "Ġpes": 3729,
      "diri": 3730,
      "riendo": 3731,
      "Ġreser": 3732,
      "Ġcualquiera": 3733,
      "Ġimpide": 3734,
      "Ġ60": 3735,
      "ĠcompilaciÃ³n": 3736,
      "Ġ70": 3737,
      "Ġrepresentarse": 3738,
      "Ġefectivo": 3739,
      "Ġunirse": 3740,
      "Ġincrementales": 3741,
      "Ġoptimis": 3742,
      "Ġdiagn": 3743,
      "ĠmeteorolÃ³gica": 3744,
      "10": 3745,
      "cent": 3746,
      "tt": 3747,
      "ulo": 3748,
      "nting": 3749,
      "arrol": 3750,
      "Ġden": 3751,
      "Ġparafra": 3752,
      "rimiento": 3753,
      "Ġdesarrol": 3754,
      "admin": 3755,
      "Ġbloquear": 3756,
      "Ġcontex": 3757,
      "Ġcondicionales": 3758,
      "ĠautorizaciÃ³n": 3759,
      "Ġadopters": 3760,
      "Ġsufrimiento": 3761,
      ")',": 3762,
      "20": 3763,
      "Po": 3764,
      "fe": 3765,
      "oco": 3766,
      "tamos": 3767,
      "Ġentradas": 3768,
      "mimos": 3769,
      "Ġnegra": 3770,
      "ĠRequest": 3771,
      "Ġconfiable": 3772,
      "porar": 3773,
      "Ġeventos": 3774,
      "ĠescalarÃ¡": 3775,
      "ecerÃ¡": 3776,
      "Ġflujo": 3777,
      "explotar": 3778,
      "ES": 3779,
      "Ġdesi": 3780,
      "siones": 3781,
      "Ġcateg": 3782,
      "Ġdisputa": 3783,
      "allback": 3784,
      "Ġgenera": 3785,
      "Ġ((Â¬Â¬": 3786,
      "pectivamente": 3787,
      "Ġ[(Â¬": 3788,
      "Ġidea": 3789,
      "Ġâī¥": 3790,
      "ĠdescalificaciÃ³n": 3791,
      "Ġleyes": 3792,
      "Ġpeligros": 3793,
      "Ġisla": 3794,
      "Ġreadiness": 3795,
      "empl": 3796,
      "zando": 3797,
      "Ġeval": 3798,
      "Ġlatencia": 3799,
      "text": 3800,
      "sistema": 3801,
      "...,": 3802,
      "Ġexcedido": 3803,
      "Ġejempl": 3804,
      "ĠBad": 3805,
      "ĠNTL": 3806,
      "stÃ¡": 3807,
      "Ġreview": 3808,
      "Ġluces": 3809,
      "Ġrevisa": 3810,
      "printing": 3811,
      "Ġsuperiores": 3812,
      "ĠLlamemos": 3813,
      "Ġlimpio": 3814,
      "ĠNTLM": 3815,
      "Ver": 3816,
      "ning": 3817,
      "pis": 3818,
      "uaciÃ³n": 3819,
      "Ġepis": 3820,
      "Ġescan": 3821,
      "orno": 3822,
      "orÃŃa": 3823,
      "Ġwar": 3824,
      "lum": 3825,
      "allen": 3826,
      "Ġrecon": 3827,
      "Ġchallen": 3828,
      "Ġviol": 3829,
      "ĠGit": 3830,
      "Ġprecipitaciones": 3831,
      "tribu": 3832,
      "Ġepiso": 3833,
      "eti": 3834,
      "truc": 3835,
      "word": 3836,
      "Ġcalidad": 3837,
      "Ã¡c": 3838,
      "Ġparado": 3839,
      "Ġremo": 3840,
      "sivo": 3841,
      "Ġdescompon": 3842,
      "Ġpaus": 3843,
      "Ġresol": 3844,
      "Ġalcance": 3845,
      "Ġalternativamente": 3846,
      "Ġclaras": 3847,
      "Ġdescarga": 3848,
      "Ġlocks": 3849,
      "Ġmaliciosos": 3850,
      "Ġreproces": 3851,
      "Ġsaldo": 3852,
      "Ġcausa": 3853,
      "Ġfactores": 3854,
      "Ġoculto": 3855,
      "Ã©ptimo": 3856,
      "ior": 3857,
      "talmente": 3858,
      "Ġ]": 3859,
      "Ġcal": 3860,
      "Ġaum": 3861,
      "ĠrÃ¡": 3862,
      "Ġcolum": 3863,
      "Ġhalla": 3864,
      "Ġ(((Â¬": 3865,
      "Ġsangrado": 3866,
      "ĠinvalidaciÃ³n": 3867,
      "negado": 3868,
      "Ġliberan": 3869,
      "Ġcalcula": 3870,
      "Ġhallaz": 3871,
      "50": 3872,
      "Ġstr": 3873,
      "erprinting": 3874,
      "uede": 3875,
      "Ġelec": 3876,
      "Ġfing": 3877,
      "Ġrediri": 3878,
      "Ġentorno": 3879,
      "Ġdependi": 3880,
      "Ġracional": 3881,
      "tificaciÃ³n": 3882,
      "Ġprecisos": 3883,
      "Ġthro": 3884,
      "Ġexclusiva": 3885,
      "Ġdetermina": 3886,
      "Ġofus": 3887,
      "Ġlicenciatario": 3888,
      "Ġarrendatario": 3889,
      "ĠAsegurar": 3890,
      "Ġoptimistic": 3891,
      "Ġchallenge": 3892,
      "Ġfingerprinting": 3893,
      "apro": 3894,
      "Ġaero": 3895,
      "env": 3896,
      "ĠSÃ©ptimo": 3897,
      "Ġexceda": 3898,
      "Ġdefinen": 3899,
      "Ġpositivas": 3900,
      "Ġfuerte": 3901,
      "Ġnormal": 3902,
      "Ġsospechoso": 3903,
      "Ġdiferencia": 3904,
      "tware": 3905,
      "Ġproy": 3906,
      "Ã©xito": 3907,
      "ÃŃcula": 3908,
      "elÃŃcula": 3909,
      "Ġhayan": 3910,
      "ificamos": 3911,
      "Ġregiones": 3912,
      "Ġbackups": 3913,
      "ĠasignarÃ©": 3914,
      "vancia": 3915,
      "Ġinyecta": 3916,
      "Ġ503": 3917,
      "Ġsilenciada": 3918,
      "ĠtautologÃŃa": 3919,
      "Ġsoftware": 3920,
      "cor": 3921,
      "tente": 3922,
      "Ġ{": 3923,
      "table": 3924,
      "Ġmejor": 3925,
      "Ġinci": 3926,
      "osis": 3927,
      "Ġsubl": 3928,
      "zadas": 3929,
      "ĠvÃ¡lidas": 3930,
      "grada": 3931,
      "Ġnecesitan": 3932,
      "Ġrecomendaciones": 3933,
      "ĠdemÃ¡s": 3934,
      "Ġdiversificada": 3935,
      "Ġconflictos": 3936,
      "Ġcontextos": 3937,
      "Version": 3938,
      "Ġsublic": 3939,
      "RTO": 3940,
      "bor": 3941,
      "fal": 3942,
      "gen": 3943,
      "zan": 3944,
      "zco": 3945,
      "door": 3946,
      "Ġmes": 3947,
      "reci": 3948,
      "ĠIn": 3949,
      "Ġdistribu": 3950,
      "Ġfallado": 3951,
      "Ġservidores": 3952,
      "Ġbackdoor": 3953,
      "Ġdivisibilidad": 3954,
      "tions": 3955,
      "Ġaprueban": 3956,
      "Ġvisto": 3957,
      "Ġ401": 3958,
      "Ġnovedad": 3959,
      "Ġpatrones": 3960,
      "Ġprotegido": 3961,
      "Ġidentifico": 3962,
      "ĠConsiderar": 3963,
      "Ġasocia": 3964,
      "pher": 3965,
      "Ġdeonto": 3966,
      "Ġtel": 3967,
      "tengas": 3968,
      "guo": 3969,
      "Ġcipher": 3970,
      "Ġrelevancia": 3971,
      "Ġabortar": 3972,
      "Ġfuertes": 3973,
      "ĠevasiÃ³n": 3974,
      "Ġhumanos": 3975,
      "Ġcondicionada": 3976,
      "Ġanomal": 3977,
      "Ġejemplo": 3978,
      "Ġparadoja": 3979,
      "ĠrÃ¡p": 3980,
      "Ġciphertext": 3981,
      "Ġemp": 3982,
      "ancia": 3983,
      "vidu": 3984,
      "estruc": 3985,
      "Ġtrate": 3986,
      "ĠSignifica": 3987,
      "Ġreciba": 3988,
      "Ġproposicionales": 3989,
      "ĠÃºltimos": 3990,
      "Ġidentificadas": 3991,
      "implÃŃci": 3992,
      "Ġobserva": 3993,
      "Ġhabilitada": 3994,
      "Ġcalificada": 3995,
      "Ġnotariado": 3996,
      "Ġindividu": 3997,
      "Ġthrott": 3998,
      "16": 3999,
      "92": 4000,
      "bypas": 4001,
      "igo": 4002,
      "Ã³stico": 4003,
      "algo": 4004,
      "Ġhar": 4005,
      "ĠPM": 4006,
      "turo": 4007,
      "ĠIDS": 4008,
      "Ġequivalentes": 4009,
      "Ġrespectivamente": 4010,
      "ĠFÃ³rmula": 4011,
      "Ġtag": 4012,
      "Ġejecutan": 4013,
      "Ġpublica": 4014,
      "Ġconfu": 4015,
      "Ġasigna": 4016,
      "Ġprimeras": 4017,
      "Ġcontinuar": 4018,
      "Ġpassword": 4019,
      "drÃŃa": 4020,
      "Ġposteri": 4021,
      "Ġconfirmado": 4022,
      "Ġenfo": 4023,
      "Ġincumplimiento": 4024,
      "168": 4025,
      "atro": 4026,
      "dena": 4027,
      "Ġdeja": 4028,
      "mpe": 4029,
      "entario": 4030,
      "main": 4031,
      "ace": 4032,
      "formular": 4033,
      "Ġpasil": 4034,
      "Ġresi": 4035,
      "Ġrequiera": 4036,
      "Ġambig": 4037,
      "ĠpodrÃ¡": 4038,
      "ĠFormalizar": 4039,
      "Ġminuto": 4040,
      "Ġopciones": 4041,
      "Ġ403": 4042,
      "Ġnormalmente": 4043,
      "Ġleakear": 4044,
      "Ġduplicado": 4045,
      "Ġviajes": 4046,
      "Ġpasillo": 4047,
      "ĠambigÃ¼e": 4048,
      "RPO": 4049,
      "fono": 4050,
      "keo": 4051,
      "uda": 4052,
      "Ġcli": 4053,
      "ĠdenegaciÃ³n": 4054,
      "icarse": 4055,
      "Ġtari": 4056,
      "Ã©fono": 4057,
      "Ġfalsas": 4058,
      "Ġfallar": 4059,
      "Ġtakeo": 4060,
      "Ġfacturado": 4061,
      "Ġimplement": 4062,
      "Ġextraen": 4063,
      "Ġmergear": 4064,
      "ĠmÃ©tricas": 4065,
      "Ġhooks": 4066,
      "Ġanalizo": 4067,
      "Ġdisyunciones": 4068,
      "ĠdinÃ¡mico": 4069,
      "Ġdeclaraciones": 4070,
      "Ġdesigno": 4071,
      "ĠrÃ¡pido": 4072,
      "Ġtarifa": 4073,
      "Ġtakeover": 4074,
      "ciendo": 4075,
      "Ġir": 4076,
      "ĠDL": 4077,
      "Ġfrau": 4078,
      "Ġpermiti": 4079,
      "Ġpresentar": 4080,
      "Ġgrani": 4081,
      "ĠaparecerÃ¡": 4082,
      "Ġrelacion": 4083,
      "Ġaceptable": 4084,
      "Ġredundancia": 4085,
      "Ġencuentras": 4086,
      "Ġinvolucra": 4087,
      "Ġconcede": 4088,
      "ĠconfusiÃ³n": 4089,
      "Ġdegrada": 4090,
      "Ġmec": 4091,
      "Ġimplique": 4092,
      "ifique": 4093,
      "Ġcuatro": 4094,
      "ĠID": 4095,
      "Ġconstitu": 4096,
      "Ġfinalmente": 4097,
      "Ġantecedentes": 4098,
      "Ġju": 4099,
      "Ġpresencia": 4100,
      "Ġdeclarada": 4101,
      "Ġpertenecer": 4102,
      "ĠanulaciÃ³n": 4103,
      "Ġsospechosa": 4104,
      "Ġencontrado": 4105,
      "Ġmostra": 4106,
      "Ġderiva": 4107,
      "ĠExtraigo": 4108,
      "Ġelectoral": 4109,
      "ĠtelÃ©fono": 4110,
      "Ġcallback": 4111,
      "Ġespera": 4112,
      "Ġele": 4113,
      "diciones": 4114,
      "Ġinfer": 4115,
      "Ã©r": 4116,
      "Ġpropor": 4117,
      "Ġdigi": 4118,
      "Ġconsumer": 4119,
      "Ġcorriendo": 4120,
      "Ġforzado": 4121,
      "duzco": 4122,
      "Ġrequerida": 4123,
      "Ġobligatoria": 4124,
      "Ġfallidos": 4125,
      "Ġestricto": 4126,
      "ĠInteg": 4127,
      "Ġanticoagulantes": 4128,
      "ĠdiagnÃ³stico": 4129,
      "Ġremota": 4130,
      ");": 4131,
      "junto": 4132,
      "pres": 4133,
      "rso": 4134,
      "tbo": 4135,
      "umi": 4136,
      "ĠfÃº": 4137,
      "Ġcurso": 4138,
      "uth": 4139,
      "Ġindicada": 4140,
      "Ġclasifica": 4141,
      "ĠtravÃ©s": 4142,
      "Ġpoder": 4143,
      "Ġcierra": 4144,
      "pasa": 4145,
      "dulo": 4146,
      "ĠformalizaciÃ³n": 4147,
      "Ġlimiter": 4148,
      "Ġrechazada": 4149,
      "crona": 4150,
      "Ġoferta": 4151,
      "ĠdecisiÃ³n": 4152,
      "Ġsecundaria": 4153,
      "ĠmÃ³dulo": 4154,
      "ĠsemÃ¡ntico": 4155,
      "Existe": 4156,
      "Ġpenalti": 4157,
      "tbol": 4158,
      "ĠfÃºtbol": 4159,
      "lÃ³g": 4160,
      "Ġestos": 4161,
      "ĠLlamÃ©mos": 4162,
      "Ġretur": 4163,
      "Ġhu": 4164,
      "ĠDonde": 4165,
      "trÃ³n": 4166,
      "Ġocurren": 4167,
      "Ġadjunto": 4168,
      "Lab": 4169,
      "hayas": 4170,
      "hayamos": 4171,
      "Ġconfigurada": 4172,
      "Ġdefinimos": 4173,
      "Ġconducta": 4174,
      "Ġdistinta": 4175,
      "Ġdesactiva": 4176,
      "ersen": 4177,
      "Ġreflej": 4178,
      "Ġadecuado": 4179,
      "Ġconocida": 4180,
      "Ġcancelado": 4181,
      "Ġhorizonte": 4182,
      "ĠGitLab": 4183,
      "Ġresolver": 4184,
      "Ġreturn": 4185,
      "EstÃ¡": 4186,
      "yendo": 4187,
      "alerta": 4188,
      "Ġrenta": 4189,
      "Ġcode": 4190,
      "Ġid": 4191,
      "ĠLo": 4192,
      "Ġrealiz": 4193,
      "Ġcubre": 4194,
      "Ġfallos": 4195,
      "Ġpresent": 4196,
      "Ġtaint": 4197,
      "Ġproductos": 4198,
      "ĠestÃ¡ndar": 4199,
      "Ġvalidaciones": 4200,
      "Ġvota": 4201,
      "ĠaceptaciÃ³n": 4202,
      "Ġenviado": 4203,
      "ĠcalificaciÃ³n": 4204,
      "Ġresponda": 4205,
      "Ġpropiedad": 4206,
      "Ġreserva": 4207,
      "Ġhallazgo": 4208,
      "ĠelectrÃ³n": 4209,
      "Ġce": 4210,
      "Ġpon": 4211,
      ")))).": 4212,
      "ĠEstruc": 4213,
      "Ãºo": 4214,
      "Ġconsumi": 4215,
      "Ġsimplemente": 4216,
      "despuÃ©s": 4217,
      "Ġ(Â¬((": 4218,
      "Ġcoincida": 4219,
      "ĠcontinÃºa": 4220,
      "Ġdiferentes": 4221,
      "Ġfirmas": 4222,
      "Ġestablecido": 4223,
      "Ġinvalidar": 4224,
      "ĠContinÃºo": 4225,
      "indows": 4226,
      "Ġimposible": 4227,
      "Ġconsumidor": 4228,
      "SIN": 4229,
      "equival": 4230,
      "posiciÃ³n": 4231,
      "Ã³lares": 4232,
      "eres": 4233,
      "undos": 4234,
      "Ġlar": 4235,
      "Ġprecon": 4236,
      "mbos": 4237,
      "ĠdÃ³lares": 4238,
      "Ġnecesito": 4239,
      "Ġsegundos": 4240,
      "ĠCTF": 4241,
      "Ġcorrec": 4242,
      "ĠRIP": 4243,
      "Ġ192": 4244,
      "Ġinterpreto": 4245,
      "ĠOSIN": 4246,
      "haya": 4247,
      "Ġconjuntiva": 4248,
      "meros": 4249,
      "Ġencuentra": 4250,
      "Ġsaturado": 4251,
      "Ġasumimos": 4252,
      "Ġdesarrollo": 4253,
      "ĠOSINT": 4254,
      "ON": 4255,
      "Ġsign": 4256,
      "todas": 4257,
      "Ġperfil": 4258,
      "guien": 4259,
      "Ġbloqueada": 4260,
      "Ġautor": 4261,
      "servi": 4262,
      "Ġimpar": 4263,
      "ĠWindows": 4264,
      "Ġconfirmada": 4265,
      "Ġreno": 4266,
      "drÃ¡s": 4267,
      "Ġobligatorio": 4268,
      "Ġcrackear": 4269,
      "Ġwarning": 4270,
      "Al": 4271,
      "OAC": 4272,
      "ĠsÃŃn": 4273,
      "ueve": 4274,
      "Ġcob": 4275,
      "tique": 4276,
      "rigi": 4277,
      "Ġintru": 4278,
      "biÃ³": 4279,
      "Ġconsecu": 4280,
      "Ġfiel": 4281,
      "ĠnÃºmeros": 4282,
      "Ġmiti": 4283,
      "Ġlogin": 4284,
      "Ġmodelamos": 4285,
      "Ġnuevamente": 4286,
      "Ġcomplejas": 4287,
      "dicho": 4288,
      "Ġfallido": 4289,
      "Ġguardia": 4290,
      "OACs": 4291,
      "icia": 4292,
      "llos": 4293,
      "Ġaque": 4294,
      "ueva": 4295,
      "Ġ'Â¬": 4296,
      "Ġconstru": 4297,
      "Ġrompe": 4298,
      "ĠReestruc": 4299,
      "ĠtÃ©cnica": 4300,
      "ĠMersen": 4301,
      "Ġdown": 4302,
      "Ġshadowbaneado": 4303,
      "Ġizquierdo": 4304,
      "incluso": 4305,
      "Ġgranizo": 4306,
      "Ġaquellos": 4307,
      "ĠMersenne": 4308,
      "aunque": 4309,
      "ctima": 4310,
      "Ġnos": 4311,
      "Ġmeta": 4312,
      "ĠvÃŃ": 4313,
      "Ġign": 4314,
      "logra": 4315,
      "mbio": 4316,
      "tus": 4317,
      "Ġdirigi": 4318,
      "Ġsubre": 4319,
      "ĠdescripciÃ³n": 4320,
      "Ġcambio": 4321,
      "Ġadminis": 4322,
      "Ġgradu": 4323,
      "Ġsubconj": 4324,
      "Ġsubnet": 4325,
      "ĠNX": 4326,
      "ĠQA": 4327,
      "Ġideas": 4328,
      "ĠSSID": 4329,
      "Ġgana": 4330,
      "Ġaseguran": 4331,
      "Ġcapabili": 4332,
      "Ġrestaurado": 4333,
      "implÃŃcito": 4334,
      "Ġjuris": 4335,
      "ĠvÃŃctima": 4336,
      "Ġgradual": 4337,
      "Ġsubconjunto": 4338,
      "ole": 4339,
      "puede": 4340,
      "Ġespa": 4341,
      "ins": 4342,
      "enciÃ³n": 4343,
      "Ġmm": 4344,
      "Ġpredicho": 4345,
      "Ġdando": 4346,
      "ĠÂ¬((Â¬": 4347,
      "Ġsusp": 4348,
      "Ġfiltro": 4349,
      "Ġpreciso": 4350,
      "Ġfactori": 4351,
      "Ġboole": 4352,
      "Ġusaremos": 4353,
      "ĠObservar": 4354,
      "ĠexpulsiÃ³n": 4355,
      "Ġadquiere": 4356,
      "Ġincorrecta": 4357,
      "Ġreinici": 4358,
      "Ġtoler": 4359,
      "Ġjuntas": 4360,
      "ĠLlamÃ©mosla": 4361,
      "='": 4362,
      "pos": 4363,
      "Ġ/": 4364,
      "eco": 4365,
      "ecto": 4366,
      "Ġdosis": 4367,
      "Ġsob": 4368,
      "Ġactivar": 4369,
      "Ġtomar": 4370,
      "Ġambi": 4371,
      "Ġprevia": 4372,
      "Ġbaneada": 4373,
      "Ġdistintas": 4374,
      "Ġpartici": 4375,
      "Ġdevuelva": 4376,
      "Ġutilitari": 4377,
      "Ġpuntos": 4378,
      "Ġparafrasear": 4379,
      "Ġmostrador": 4380,
      "Falla": 4381,
      "ebre": 4382,
      "tÃ¡s": 4383,
      "zarÃ¡": 4384,
      "Ã³p": 4385,
      "dios": 4386,
      "raf": 4387,
      "ĠprÃ³": 4388,
      "Ġproduce": 4389,
      "ĠharÃ¡": 4390,
      "ĠcatÃ¡s": 4391,
      "trarÃ¡": 4392,
      "Ġfiebre": 4393,
      "Ġformalizar": 4394,
      "itial": 4395,
      "ĠeliminaciÃ³n": 4396,
      "Ġlleva": 4397,
      "Ġparchear": 4398,
      "ĠguardiÃ¡n": 4399,
      "Ġaccess": 4400,
      "Ġcorporativo": 4401,
      "Ġfraude": 4402,
      "Ġmecan": 4403,
      "Ġwarnings": 4404,
      "ĠcatÃ¡stro": 4405,
      "drÃ¡": 4406,
      "ier": 4407,
      "iado": 4408,
      "Ġetique": 4409,
      "ering": 4410,
      "ĠâĪ§;": 4411,
      "Ġll": 4412,
      "ĠparÃ¡metro": 4413,
      "tive": 4414,
      "Ġintent": 4415,
      "Ġdefinida": 4416,
      "Ġfuerce": 4417,
      "Ġlocking": 4418,
      "Ġdiferente": 4419,
      "Ġlinting": 4420,
      "Ġitems": 4421,
      "ĠtratarÃ©": 4422,
      "Ġnombre": 4423,
      "excepciÃ³n": 4424,
      "Ġmeses": 4425,
      "VLAN": 4426,
      "cta": 4427,
      "grÃ¡": 4428,
      "licar": 4429,
      "Ġdenegado": 4430,
      "ĠprÃ¡c": 4431,
      "Ġenco": 4432,
      "Ġven": 4433,
      "cionario": 4434,
      "Ġinjec": 4435,
      "Ġexterna": 4436,
      "ĠAnalizamos": 4437,
      "Ġintermedia": 4438,
      "Ġafeitar": 4439,
      "Ġcontrolar": 4440,
      "Ġcaballeros": 4441,
      "Ġbanco": 4442,
      "ĠJuntando": 4443,
      "Ġconoce": 4444,
      "pias": 4445,
      "Ġefectos": 4446,
      "Ġsenior": 4447,
      "drÃ©": 4448,
      "ĠmÃ³vi": 4449,
      "Ġanidada": 4450,
      "Ġconcurrencia": 4451,
      "Ġempar": 4452,
      "Ġencoding": 4453,
      "Ġinjection": 4454,
      "('/": 4455,
      "CE": 4456,
      "Las": 4457,
      "donde": 4458,
      "mienza": 4459,
      "rificar": 4460,
      "ĠÃ¡": 4461,
      "esto": 4462,
      "Ġdemas": 4463,
      "Ġnoti": 4464,
      "Ġproble": 4465,
      "ĠAsu": 4466,
      "Ġimplican": 4467,
      "Ġestamos": 4468,
      "Ġclarificar": 4469,
      "Ġrota": 4470,
      "ĠDefinamos": 4471,
      "Ġcapturado": 4472,
      "Ġ42": 4473,
      "Ġmoderado": 4474,
      "Ġfiltrado": 4475,
      "Ġfuncionando": 4476,
      "exe": 4477,
      "Ġtimesta": 4478,
      "Ġreflejar": 4479,
      "Ġenviar": 4480,
      "ĠUsaremos": 4481,
      "Ġ[Â¬(": 4482,
      "Ġcentral": 4483,
      "bloqueo": 4484,
      "consecuente": 4485,
      "Ġconectividad": 4486,
      "Ġpausa": 4487,
      "ĠanomalÃŃa": 4488,
      "Ġproporciona": 4489,
      "Ġlargo": 4490,
      "Ġdirigido": 4491,
      "ĠcatÃ¡strofe": 4492,
      "Ġtimestamp": 4493,
      "%'.": 4494,
      "tÃŃ": 4495,
      "test": 4496,
      "Ġaus": 4497,
      "Ġrace": 4498,
      "teo": 4499,
      "siste": 4500,
      "Ġhack": 4501,
      "Ġalguien": 4502,
      "lea": 4503,
      "notar": 4504,
      "Ġante": 4505,
      "Ġafirm": 4506,
      "ĠUber": 4507,
      "Ġrecono": 4508,
      "interpre": 4509,
      "Ġdeshabilita": 4510,
      "Ġelementos": 4511,
      "Ġsanitizado": 4512,
      "ĠsanitizaciÃ³n": 4513,
      "Ġencienden": 4514,
      "Ġasumir": 4515,
      "Ġsimilar": 4516,
      "Ġnuevos": 4517,
      "Ġpronostican": 4518,
      "Ġtaints": 4519,
      "rus": 4520,
      "ene": 4521,
      "dacciÃ³n": 4522,
      "Ġvector": 4523,
      "ĠredacciÃ³n": 4524,
      "ĠAC": 4525,
      "ĠexenciÃ³n": 4526,
      "Ġsujeta": 4527,
      "curre": 4528,
      "uscar": 4529,
      "Ġdespro": 4530,
      "Ġstatus": 4531,
      "emor": 4532,
      "Ġintegrar": 4533,
      "deros": 4534,
      "Ġvisi": 4535,
      "Ġinventario": 4536,
      "Ġexternos": 4537,
      "Ġsubdomain": 4538,
      "Ġescuderos": 4539,
      "Ġasume": 4540,
      "Ġasumiendo": 4541,
      "Ġdiccionario": 4542,
      "ĠbÃ¡sicas": 4543,
      "Ġevadir": 4544,
      "Ġaumento": 4545,
      "ĠdeontolÃ³g": 4546,
      "Ġhubo": 4547,
      "Ġdowngrade": 4548,
      "ĠjurisdicciÃ³n": 4549,
      "Con": 4550,
      "Ġdejar": 4551,
      "encon": 4552,
      "Ġsex": 4553,
      "ĠAES": 4554,
      "traciÃ³n": 4555,
      "Ġpersiste": 4556,
      "Ġtras": 4557,
      "ĠComienza": 4558,
      "Ġaplican": 4559,
      "Ġvotantes": 4560,
      "Ġantiguo": 4561,
      "ĠmÃ©todos": 4562,
      "Ġcrear": 4563,
      "ĠUnir": 4564,
      "Ġprevias": 4565,
      "ĠgeogrÃ¡": 4566,
      "implica": 4567,
      "Ġpermitan": 4568,
      "Ġsolicitud": 4569,
      "Ġadversa": 4570,
      "ĠocurrirÃ¡": 4571,
      "Ġcolumnas": 4572,
      "Ġcalcular": 4573,
      "Ġprecondiciones": 4574,
      "Ġdemasiado": 4575,
      "ĠgeogrÃ¡fica": 4576,
      "Lo": 4577,
      "men": 4578,
      "dedor": 4579,
      "echa": 4580,
      "ĠfÃŃs": 4581,
      "Ġva": 4582,
      "Ġreenv": 4583,
      "Ġreformular": 4584,
      "ano": 4585,
      "rededor": 4586,
      "ĠSolo": 4587,
      "Ġalrededor": 4588,
      "Ġacla": 4589,
      "irar": 4590,
      "irme": 4591,
      "alizada": 4592,
      "Ġgirar": 4593,
      "unta": 4594,
      "Ġconectado": 4595,
      "Ġrelevante": 4596,
      "vision": 4597,
      "Ġdefiniciones": 4598,
      "Ġalgun": 4599,
      "Ġinvers": 4600,
      "Ġsolicitado": 4601,
      "ĠprecipitaciÃ³n": 4602,
      "ĠrestauraciÃ³n": 4603,
      "Ġredirige": 4604,
      "Ġharden": 4605,
      "ĠrenovaciÃ³n": 4606,
      "Ġcobrar": 4607,
      "cada": 4608,
      "edor": 4609,
      "Ġbene": 4610,
      "Ġdren": 4611,
      "Ġintelig": 4612,
      "Ġdesa": 4613,
      "ĠDB": 4614,
      "Ġatta": 4615,
      "Ġequivalencias": 4616,
      "Ġprete": 4617,
      "Ġreglam": 4618,
      "come": 4619,
      "Ġunidos": 4620,
      "Ġevidencia": 4621,
      "Ġcreador": 4622,
      "ĠmÃŃnima": 4623,
      "Ġfactura": 4624,
      "ĠcaÃŃda": 4625,
      "olso": 4626,
      "ĠObjec": 4627,
      "Ġrechazar": 4628,
      "ĠcancelaciÃ³n": 4629,
      "Ġgratuita": 4630,
      "Ġsimilares": 4631,
      "Ġinterac": 4632,
      "Ġstring": 4633,
      "Ġproyecto": 4634,
      "recibe": 4635,
      "ecovery": 4636,
      "Ġinteligente": 4637,
      "ĠObjective": 4638,
      "CB": 4639,
      "ate": 4640,
      "ĠÃ³p": 4641,
      "Ġsel": 4642,
      "Ġnoto": 4643,
      "Ġomi": 4644,
      "andos": 4645,
      "Ġinitial": 4646,
      "Ġactivas": 4647,
      "Ġpagar": 4648,
      "Ġaplic": 4649,
      "ĠestÃ©s": 4650,
      "Ġtengan": 4651,
      "Ġresidente": 4652,
      "Ġdada": 4653,
      "Ġservicios": 4654,
      "Ġrecup": 4655,
      "Ġobtenido": 4656,
      "Ġanalytics": 4657,
      "Ġcomandos": 4658,
      "ĠgeneraciÃ³n": 4659,
      "Ġconjunta": 4660,
      "Ġdoble": 4661,
      "Ġidentificado": 4662,
      "Ġcandidatos": 4663,
      "existe": 4664,
      "Ġbypassearlo": 4665,
      "Ġlead": 4666,
      "Ġutiliza": 4667,
      "enciar": 4668,
      "Ġresuelto": 4669,
      "Ġcruzando": 4670,
      "Ġrescin": 4671,
      "puerto": 4672,
      "Ġviolenta": 4673,
      "ĠprÃ¡ctica": 4674,
      "ĠÃ³ptima": 4675,
      "Finalmente": 4676,
      "HA": 4677,
      "Su": 4678,
      "VAS": 4679,
      "]'": 4680,
      "bun": 4681,
      "gaciÃ³n": 4682,
      "kins": 4683,
      "posi": 4684,
      "rÃ¡s": 4685,
      "ĠZ": 4686,
      "enkins": 4687,
      "Ġsent": 4688,
      "eramente": 4689,
      "ĠCHA": 4690,
      "Ġcau": 4691,
      "ĠatrÃ¡s": 4692,
      "ĠRCE": 4693,
      "reco": 4694,
      "recha": 4695,
      "Ġcontraste": 4696,
      "ĠmantendrÃ©": 4697,
      "endida": 4698,
      "Ġincluya": 4699,
      "Ġexpresarse": 4700,
      "ĠsubcondiciÃ³n": 4701,
      "Ġcach": 4702,
      "Ġsimplifica": 4703,
      "Ġtribun": 4704,
      "ĠprogramaciÃ³n": 4705,
      "ĠJenkins": 4706,
      "ĠCuarta": 4707,
      "âĪ¨": 4708,
      "ĠrevocaciÃ³n": 4709,
      "Ġcomunicarse": 4710,
      "Ġapropiado": 4711,
      "Ġjustifica": 4712,
      "Ġpeligroso": 4713,
      "ĠreenvÃŃa": 4714,
      "VASc": 4715,
      "Ġtribunal": 4716,
      "Ġ0": 4717,
      "ĠpÃº": 4718,
      "nto": 4719,
      "Ġconcep": 4720,
      "tada": 4721,
      "Ġcopias": 4722,
      "ĠestarÃ¡": 4723,
      "analytics": 4724,
      "Ã©nt": 4725,
      "ÃŃble": 4726,
      "ĠdÃŃa": 4727,
      "Ġmencion": 4728,
      "Ġverde": 4729,
      "mada": 4730,
      "Ġserlo": 4731,
      "ĠCu": 4732,
      "Ġdesas": 4733,
      "Ġintercep": 4734,
      "Ġpocos": 4735,
      "Ġexitosos": 4736,
      "Ġobtenemos": 4737,
      "ĠcreÃŃble": 4738,
      "Ġprimeros": 4739,
      "Ġejerza": 4740,
      "ĠdefinirÃ©": 4741,
      "Ġhabilitadas": 4742,
      "greso": 4743,
      "Ġquiere": 4744,
      "ĠTodos": 4745,
      "Ġsublicenciar": 4746,
      "ĠambigÃ¼edad": 4747,
      "ĠidÃ©nt": 4748,
      "ĠEstructurar": 4749,
      "Ġsexta": 4750,
      "EP": 4751,
      "dicar": 4752,
      "hec": 4753,
      "lÃŃnea": 4754,
      "ĠpelÃŃcula": 4755,
      "Ġrealizado": 4756,
      "Ġindicar": 4757,
      "ĠperÃŃo": 4758,
      "tarÃ©": 4759,
      "Ġpositiva": 4760,
      "coinci": 4761,
      "exiÃ³n": 4762,
      "Ġgrupos": 4763,
      "Ġtempor": 4764,
      "Ġdirector": 4765,
      "Ġautorizada": 4766,
      "Ġpersistente": 4767,
      "Ġextraer": 4768,
      "Ġcertificados": 4769,
      "Ġpuntaje": 4770,
      "Ġsecundarios": 4771,
      "ĠAseguro": 4772,
      "Podemos": 4773,
      "ĠaerolÃŃnea": 4774,
      "ĠReestructuro": 4775,
      "rafana": 4776,
      "Ġselec": 4777,
      "hechos": 4778,
      "ĠperÃŃodo": 4779,
      "NAM": 4780,
      "Recovery": 4781,
      "Tu": 4782,
      "xx": 4783,
      "Ġdor": 4784,
      "ciencia": 4785,
      "det": 4786,
      "Ġcha": 4787,
      "Ġdetiene": 4788,
      "ender": 4789,
      "Ġsiti": 4790,
      "Ġenga": 4791,
      "Ġenum": 4792,
      "Ġcub": 4793,
      "Ġverlo": 4794,
      "ĠusarÃ¡": 4795,
      "ĠCNAM": 4796,
      "ecedente": 4797,
      "Ġtomo": 4798,
      "estÃ©": 4799,
      "Ġcompra": 4800,
      "Ġejecutado": 4801,
      "Ġ500": 4802,
      "ĠclÃ¡s": 4803,
      "Ġbasta": 4804,
      "Ġresultante": 4805,
      "ĠartÃŃ": 4806,
      "ĠantibiÃ³": 4807,
      "Ġfiltros": 4808,
      "ensas": 4809,
      "Ġlegal": 4810,
      "Ġvacaciones": 4811,
      "Ġescalado": 4812,
      "Ġobserv": 4813,
      "Ġajus": 4814,
      "ĠIntegrar": 4815,
      "Ġconstruir": 4816,
      "Ġsentido": 4817,
      "Ġchain": 4818,
      "Ġsitio": 4819,
      "ĠCNAME": 4820,
      "ple": 4821,
      "esti": 4822,
      "Ġtor": 4823,
      "ensa": 4824,
      "Ġsiste": 4825,
      "Ġrevers": 4826,
      "Ġintrus": 4827,
      "acceso": 4828,
      "ĠDOACs": 4829,
      "mino": 4830,
      "Ġllamar": 4831,
      "ĠllamÃ©mos": 4832,
      "ĠUE": 4833,
      "Ġlibre": 4834,
      "Ġimpuestos": 4835,
      "seguridad": 4836,
      "Ġmantenerlo": 4837,
      "Ġidentificada": 4838,
      "ĠdeberÃŃa": 4839,
      "Ġpersona": 4840,
      "Ġcambia": 4841,
      "ĠinteracciÃ³n": 4842,
      "Ġadecuadamente": 4843,
      "Ġepisodio": 4844,
      "Ġirre": 4845,
      "Ġinferir": 4846,
      "ĠCumple": 4847,
      "Ġreversing": 4848,
      "Ġintrusos": 4849,
      "Tiene": 4850,
      "fic": 4851,
      "menda": 4852,
      "zz": 4853,
      "defin": 4854,
      "tando": 4855,
      "Ġfecha": 4856,
      "ĠvÃŃa": 4857,
      "tures": 4858,
      "alizo": 4859,
      "bil": 4860,
      "ertad": 4861,
      "bemos": 4862,
      "ivos": 4863,
      "Ġafirmativa": 4864,
      "Ġconectada": 4865,
      "Ġflags": 4866,
      "ĠRefin": 4867,
      "Ġpuzz": 4868,
      "dump": 4869,
      "ĠcombinaciÃ³n": 4870,
      "Ġimpuesto": 4871,
      "Ġprogramar": 4872,
      "Ġlibertad": 4873,
      "venga": 4874,
      "Ġflush": 4875,
      "Ġdisyunt": 4876,
      "Ġpermanece": 4877,
      "corporar": 4878,
      "ĠIncorporar": 4879,
      "Ġausencia": 4880,
      "encontrar": 4881,
      "eando": 4882,
      "lina": 4883,
      "ping": 4884,
      "Ġescal": 4885,
      "Ġconta": 4886,
      "Ġlla": 4887,
      "Ġverifique": 4888,
      "Ġintente": 4889,
      "Ġmod": 4890,
      "icilina": 4891,
      "Ġagrupa": 4892,
      "mana": 4893,
      "ĠSSL": 4894,
      "ĠmodelarÃ©": 4895,
      "Ġasegurar": 4896,
      "Ġavanzada": 4897,
      "ĠintenciÃ³n": 4898,
      "Ġpenicilina": 4899,
      "Ġdescritas": 4900,
      "Ġresuelva": 4901,
      "Ġmitiga": 4902,
      "logras": 4903,
      "Ġsubred": 4904,
      "Ġetiquetado": 4905,
      "visionado": 4906,
      "Ġbenefici": 4907,
      "Ġattack": 4908,
      "ĠcachÃ©": 4909,
      "Ġescale": 4910,
      "Yo": 4911,
      "abor": 4912,
      "ming": 4913,
      "Ġme": 4914,
      "Ġmerc": 4915,
      "Ġretra": 4916,
      "ĠEstÃ¡n": 4917,
      "Ġdro": 4918,
      "ĠSu": 4919,
      "ĠdaÃ±o": 4920,
      "Ġprescri": 4921,
      "ĠpresiÃ³n": 4922,
      "Ġtabla": 4923,
      "Ã±ado": 4924,
      "Ġanual": 4925,
      "ĠReinterpre": 4926,
      "Ġoraciones": 4927,
      "Ġargu": 4928,
      "Ġespeciales": 4929,
      "Ġcerrado": 4930,
      "ĠgarantÃŃa": 4931,
      "Ġinvalide": 4932,
      "ĠsemÃ¡ntica": 4933,
      "Ġnuevas": 4934,
      "ĠrescisiÃ³n": 4935,
      "servidor": 4936,
      "ĠsÃŃncrona": 4937,
      "Ġmercado": 4938,
      "IE": 4939,
      "LS": 4940,
      "hemos": 4941,
      "heat": 4942,
      "tÃ³": 4943,
      "uste": 4944,
      "ves": 4945,
      "write": 4946,
      "Ġpivo": 4947,
      "Ġ(~": 4948,
      "icheat": 4949,
      "ecciones": 4950,
      "ancias": 4951,
      "Ġprob": 4952,
      "Ġherra": 4953,
      "Ġentren": 4954,
      "Ġingen": 4955,
      "ĠAc": 4956,
      "Ġhaciendo": 4957,
      "Ġdivis": 4958,
      "Ġexpuesto": 4959,
      "Ġanticheat": 4960,
      "ĠRAM": 4961,
      "versa": 4962,
      "como": 4963,
      "ĠOcta": 4964,
      "Ġmora": 4965,
      "surge": 4966,
      "Ġranking": 4967,
      "Ġrecomienda": 4968,
      "ĠJS": 4969,
      "Ġlanzamiento": 4970,
      "ĠmigraciÃ³n": 4971,
      "Ġdetermine": 4972,
      "ĠresoluciÃ³n": 4973,
      "ĠÃºnico": 4974,
      "Ġidentificar": 4975,
      "Ġsincronizado": 4976,
      "Ġtolerancias": 4977,
      "ierÃŃa": 4978,
      "CBC": 4979,
      "recomenda": 4980,
      "ĠllamÃ©mosla": 4981,
      "Ġherrami": 4982,
      "Ġentrenamiento": 4983,
      "ĠingenierÃŃa": 4984,
      "In": 4985,
      "tres": 4986,
      "Ġesos": 4987,
      "ĠâĪĪ": 4988,
      "Ġconecte": 4989,
      "Ġruta": 4990,
      "Ġsecu": 4991,
      "entas": 4992,
      "Ġenc": 4993,
      "Ġenz": 4994,
      "ĠâĨĴ;": 4995,
      "Ġfe": 4996,
      "ĠLlamo": 4997,
      "ĠprohÃŃ": 4998,
      "ifies": 4999,
      "Ġfall": 5000,
      "vido": 5001,
      "form": 5002,
      "Ġmanifies": 5003,
      "Ġactivada": 5004,
      "backup": 5005,
      "com": 5006,
      "Ġlee": 5007,
      "ĠOA": 5008,
      ")))]": 5009,
      "Ġagente": 5010,
      "Ġcombinada": 5011,
      "Ġmonitoreando": 5012,
      "Ġcompuestas": 5013,
      "ĠVLANs": 5014,
      "Ġdumpeado": 5015,
      "Ġnormales": 5016,
      "autentica": 5017,
      "Ġinfrac": 5018,
      "Ġdicha": 5019,
      "ĠexfiltraciÃ³n": 5020,
      "Ġpromovido": 5021,
      "Ġcorrespondan": 5022,
      "Ġtampering": 5023,
      "Ġsaliente": 5024,
      "Ġposteriores": 5025,
      "Ġafirmar": 5026,
      "Ġdesprovisionado": 5027,
      "Ġmitigaciones": 5028,
      "ĠOctavo": 5029,
      "ibilidad": 5030,
      "pea": 5031,
      "xy": 5032,
      "}.": 5033,
      "Ã³sito": 5034,
      "ĠunÃ¡n": 5035,
      "Ġsemana": 5036,
      "ĠEIP": 5037,
      "ĠnotaciÃ³n": 5038,
      "ties": 5039,
      "Ġprovenir": 5040,
      "Ġhaga": 5041,
      "Ġportal": 5042,
      "mites": 5043,
      "Ġcomplete": 5044,
      "Ġdescon": 5045,
      "Ġtrato": 5046,
      "Ġtengo": 5047,
      "Ġcorrup": 5048,
      "Ġrogue": 5049,
      "Ġciber": 5050,
      "Ġdesple": 5051,
      "Ġdetectan": 5052,
      "ĠquÃ©": 5053,
      "Ġorden": 5054,
      "Ġintegra": 5055,
      "ĠÃ©l": 5056,
      "Ġinterpretamos": 5057,
      "Ġlance": 5058,
      "ĠlÃŃmites": 5059,
      "Ġopcional": 5060,
      "Ġexistencia": 5061,
      "Ġcuartos": 5062,
      "Ġganar": 5063,
      "Ġrenunci": 5064,
      "Ġagregue": 5065,
      "Ġgol": 5066,
      "Ġaccesible": 5067,
      "Ġsatisface": 5068,
      "Ġresiliente": 5069,
      "ĠclimÃ¡t": 5070,
      "Ġcapabilities": 5071,
      "ĠmÃ³vil": 5072,
      "Ġrotation": 5073,
      "ĠpÃºbl": 5074,
      "Ġargumento": 5075,
      "formulo": 5076,
      "ĠunÃ¡nime": 5077,
      "Ġciberseguridad": 5078,
      "idos": 5079,
      "Ġedi": 5080,
      "Ġami": 5081,
      "eno": 5082,
      "ecen": 5083,
      "rategi": 5084,
      "Ġsint": 5085,
      "ĠvÃŃas": 5086,
      "Ġconditions": 5087,
      "Ġestrategi": 5088,
      "Ġotor": 5089,
      "ulancia": 5090,
      "ĠestÃ¡tica": 5091,
      "mamos": 5092,
      "seg": 5093,
      "Ġporcent": 5094,
      "Ġusado": 5095,
      "Ġambulancia": 5096,
      "Ġmanej": 5097,
      "ĠTV": 5098,
      "ĠprescripciÃ³n": 5099,
      "Ġdespleg": 5100,
      "mÃ¡tico": 5101,
      "Ġmiente": 5102,
      "Ġimpor": 5103,
      "ĠNeces": 5104,
      "ĠprecisiÃ³n": 5105,
      "Ġtriple": 5106,
      "Ġspoo": 5107,
      "ĠactualizaciÃ³n": 5108,
      "Ġ1000": 5109,
      "primera": 5110,
      "Ġsuperar": 5111,
      "Ġfirmantes": 5112,
      "Ġpersonas": 5113,
      "ĠTraduzco": 5114,
      "Ġcorrespondi": 5115,
      "Ġtampoco": 5116,
      "Ġreviewer": 5117,
      "Ġdescomponer": 5118,
      "Ġthrottling": 5119,
      "ĠDLL": 5120,
      "ĠprÃ³xi": 5121,
      "coincide": 5122,
      "Ġdirectorio": 5123,
      "Ġpuzzle": 5124,
      "ĠJSON": 5125,
      "Ġherramientas": 5126,
      "Ġdesplegarse": 5127,
      "SQL": 5128,
      "ilo": 5129,
      "pivotear": 5130,
      "uraciÃ³n": 5131,
      "vular": 5132,
      "Ġcm": 5133,
      "Ġahora": 5134,
      "ena": 5135,
      "Ġne": 5136,
      "ragia": 5137,
      "Ġvea": 5138,
      "Ġby": 5139,
      "Ġbue": 5140,
      "Ġproxy": 5141,
      "Ġhi": 5142,
      "ĠdiÃ¡metro": 5143,
      "ĠSus": 5144,
      "iende": 5145,
      "ĠDice": 5146,
      "teral": 5147,
      "ĠdepuraciÃ³n": 5148,
      "Ġjard": 5149,
      "Ġcasual": 5150,
      "ĠdefiniÃ³": 5151,
      "pago": 5152,
      "Ġfailo": 5153,
      "Ġobservan": 5154,
      "Ġinmediata": 5155,
      "Ġvalvular": 5156,
      "Ġarbitr": 5157,
      "Ġofuscado": 5158,
      "Ġdigitalmente": 5159,
      "Ġponens": 5160,
      "Ġutilitarista": 5161,
      "emorragia": 5162,
      "ĠSustitu": 5163,
      "ĠjardÃŃn": 5164,
      "Ġfailover": 5165,
      "KID": 5166,
      "Ops": 5167,
      "baciÃ³n": 5168,
      "cliente": 5169,
      "geramente": 5170,
      "vOps": 5171,
      "Ġscan": 5172,
      "one": 5173,
      "erre": 5174,
      "Ġdej": 5175,
      "unidad": 5176,
      "alo": 5177,
      "enemos": 5178,
      "token": 5179,
      "Ġhemos": 5180,
      "ÃŃan": 5181,
      "Ġalde": 5182,
      "antecedente": 5183,
      "Ġinterno": 5184,
      "ĠDevOps": 5185,
      "ĠRele": 5186,
      "Ġprescribe": 5187,
      "Ġsignificativa": 5188,
      "Ġrelease": 5189,
      "ĠCondiciÃ³n": 5190,
      "Ġligeramente": 5191,
      "Ġconfirme": 5192,
      "Ġpayment": 5193,
      "Ġestemos": 5194,
      "ĠlanzarÃ¡": 5195,
      "Ġacepte": 5196,
      "ĠpodrÃŃamos": 5197,
      "Ġsosten": 5198,
      "Ġanulada": 5199,
      "ĠGrafana": 5200,
      "ĠconsiderarÃ¡": 5201,
      "Ġmencionadas": 5202,
      "Ġsospechosas": 5203,
      "Ġcontinu": 5204,
      "Ġdeterminar": 5205,
      "Ġdecide": 5206,
      "Ġasumo": 5207,
      "Ġmanipulado": 5208,
      "Ġmecanismo": 5209,
      "ĠfÃŃsico": 5210,
      "Ġdesastres": 5211,
      "Ġbeneficiario": 5212,
      "AR": 5213,
      "dremos": 5214,
      "pris": 5215,
      "ule": 5216,
      "ĠâĬ": 5217,
      "error": 5218,
      "erpris": 5219,
      "Ġdejo": 5220,
      "Ġdeni": 5221,
      "taforma": 5222,
      "Ġincon": 5223,
      "Ġinapro": 5224,
      "Ġimplicar": 5225,
      "ĠPIE": 5226,
      "mati": 5227,
      "acta": 5228,
      "Ġdesbloqueo": 5229,
      "Ġaplicar": 5230,
      "fiero": 5231,
      "Ġembarque": 5232,
      "Ġembarcar": 5233,
      "Ġcompacta": 5234,
      "Ġautomati": 5235,
      "Ġejecutarse": 5236,
      "idades": 5237,
      "Ġaceptado": 5238,
      "Ġcoherente": 5239,
      "Ġglobalmente": 5240,
      "Ġvuelve": 5241,
      "piado": 5242,
      "Ġcancelar": 5243,
      "Ġapela": 5244,
      "Ġplataforma": 5245,
      "Ġesperando": 5246,
      "Ġgarantiza": 5247,
      "Ġdeployments": 5248,
      "Ġpeso": 5249,
      "ĠcategÃ³r": 5250,
      "Ġescaneado": 5251,
      "Ġreprocesa": 5252,
      "Ġinyectado": 5253,
      "Ġ{[(": 5254,
      "uthori": 5255,
      "Ġ422": 5256,
      "Ġtemporalmente": 5257,
      "Ġmodus": 5258,
      "Ġpivoteo": 5259,
      "ĠpÃºblico": 5260,
      "Ġarbitrarios": 5261,
      "erprise": 5262,
      "Ġinconsis": 5263,
      "Ġinapropiado": 5264,
      "11": 5265,
      "eas": 5266,
      "ongi": 5267,
      "unca": 5268,
      "Ġella": 5269,
      "Ġtal": 5270,
      "Ġvice": 5271,
      "Ġpartic": 5272,
      "ĠreacciÃ³n": 5273,
      "Ġhemorragia": 5274,
      "erapi": 5275,
      "Ġpropio": 5276,
      "hol": 5277,
      "fing": 5278,
      "tarse": 5279,
      "Ġcompeti": 5280,
      "Ġpermiten": 5281,
      "recar": 5282,
      "samos": 5283,
      "haber": 5284,
      "Ġtercero": 5285,
      "Ġobtenga": 5286,
      "ĠclÃŃn": 5287,
      "Ġbasada": 5288,
      "Ġexplotable": 5289,
      "Ġmarque": 5290,
      "Ġvalidado": 5291,
      "Ġimpida": 5292,
      "Ġformal": 5293,
      "hibe": 5294,
      "Ã©mosle": 5295,
      "Ġdebugge": 5296,
      "Ġfundamentales": 5297,
      "ĠespecÃŃficas": 5298,
      "Ġthreads": 5299,
      "ĠdÃ©bil": 5300,
      "Ġfinancia": 5301,
      "Ġcomponente": 5302,
      "Ġmostrar": 5303,
      "Tener": 5304,
      "Ġasociativa": 5305,
      "Ġadministrar": 5306,
      "Ġsobrecar": 5307,
      "Ġparticip": 5308,
      "Ġspoofing": 5309,
      "ongitud": 5310,
      "Ġviceversa": 5311,
      "erapia": 5312,
      "cre": 5313,
      "alle": 5314,
      "Ġeli": 5315,
      "Ġfr": 5316,
      "modo": 5317,
      "Ġret": 5318,
      "Ġprovenga": 5319,
      "Ġcadena": 5320,
      "firewall": 5321,
      "ificaciÃ³n": 5322,
      "Ġposibles": 5323,
      "gement": 5324,
      "Ġcanc": 5325,
      "Ġcart": 5326,
      "ĠDespuÃ©s": 5327,
      "Ġarchivos": 5328,
      "Ġelimina": 5329,
      "Ġresponder": 5330,
      "Ġpadre": 5331,
      "based": 5332,
      "Ġmentirosos": 5333,
      "Ġarrendador": 5334,
      "Ġestablecida": 5335,
      "Ġreinicia": 5336,
      "Ġparches": 5337,
      "Ġinferior": 5338,
      "consecuencia": 5339,
      "ĠTraducir": 5340,
      "Ġdependiendo": 5341,
      "ĠelectrÃ³nica": 5342,
      "Ġdeshabilitada": 5343,
      "ĠclÃ¡sica": 5344,
      "Ġprescriba": 5345,
      "ĠpH": 5346,
      "Ġexten": 5347,
      "Ġdimen": 5348,
      "Ġusen": 5349,
      "Ã¡tomos": 5350,
      "Ġprimario": 5351,
      "podrÃŃa": 5352,
      "Ġdependen": 5353,
      "ĠFormalizo": 5354,
      "Ġverificada": 5355,
      "Ġverificados": 5356,
      "ĠprocesÃ³": 5357,
      "Ġimpug": 5358,
      "Ġconozca": 5359,
      "Ġabsoluto": 5360,
      "Ġonline": 5361,
      "Ġsensible": 5362,
      "Ġcambios": 5363,
      "Ġduplicados": 5364,
      "Ġparcheada": 5365,
      "ĠpromociÃ³n": 5366,
      "Ġtermina": 5367,
      "ĠPMKID": 5368,
      "Ġdegradado": 5369,
      "Ġesperada": 5370,
      "Ġbooleana": 5371,
      "ĠÃ¡rea": 5372,
      "ĠaclaraciÃ³n": 5373,
      "ĠenumeraciÃ³n": 5374,
      "recomendado": 5375,
      "Ġaldea": 5376,
      "Ġdeniega": 5377,
      "Ġdimensiones": 5378,
      "DP": 5379,
      "SELinux": 5380,
      "ee": 5381,
      "gent": 5382,
      "vele": 5383,
      "Ġpico": 5384,
      "aran": 5385,
      "Ġyo": 5386,
      "Ġsilog": 5387,
      "Ġif": 5388,
      "Ġofici": 5389,
      "ĠreducciÃ³n": 5390,
      "Ġrevele": 5391,
      "Ġproba": 5392,
      "Ġexento": 5393,
      "Ġindicado": 5394,
      "Ġuser": 5395,
      "Ġuses": 5396,
      "formado": 5397,
      "Ġactivos": 5398,
      "tencias": 5399,
      "Ġforzar": 5400,
      "ĠUDP": 5401,
      "Ġaplicable": 5402,
      "edir": 5403,
      "Ġconectados": 5404,
      "Ġraz": 5405,
      ")]<|": 5406,
      "Ġformat": 5407,
      "Ġtarde": 5408,
      "Ġmodifique": 5409,
      "ĠmediciÃ³n": 5410,
      "Ġiniciales": 5411,
      "Ġasignan": 5412,
      "ĠUsando": 5413,
      "Ġcosas": 5414,
      "Ġperspec": 5415,
      "ĠutilizaciÃ³n": 5416,
      "llamÃ©mosla": 5417,
      "Ġcondicionado": 5418,
      "ĠInterpre": 5419,
      "Ġpropiedades": 5420,
      "ĠevalÃºa": 5421,
      "Ġincidente": 5422,
      "Ġindividuales": 5423,
      "Ġdesactivados": 5424,
      "Ġreglamento": 5425,
      "Ġomitir": 5426,
      "Ġrecuper": 5427,
      "ĠartÃŃculo": 5428,
      "Hemos": 5429,
      "OR": 5430,
      "ambas": 5431,
      "atarios": 5432,
      "dico": 5433,
      "email": 5434,
      "vada": 5435,
      "Â¿": 5436,
      "Ġsing": 5437,
      "ick": 5438,
      "Ġseis": 5439,
      "Ġnunca": 5440,
      "ĠestÃ¡s": 5441,
      "sig": 5442,
      "Ġsuje": 5443,
      "led": 5444,
      "Ã³malo": 5445,
      "contra": 5446,
      "ivas": 5447,
      "Ġciuda": 5448,
      "ĠserÃ¡n": 5449,
      "cap": 5450,
      "Ġunida": 5451,
      "ĠanÃ³malo": 5452,
      "ĠReformulo": 5453,
      "tiendo": 5454,
      "Ġinterpretarlo": 5455,
      "Ġamena": 5456,
      "Ġenviada": 5457,
      "ĠobligaciÃ³n": 5458,
      "Ġmasiva": 5459,
      "Ġavanza": 5460,
      "Ġavanzadas": 5461,
      "Ġenciende": 5462,
      "Ġmultisig": 5463,
      "Ġdemuestre": 5464,
      "Ġenfati": 5465,
      "ĠExtraer": 5466,
      "ASLR": 5467,
      "Ġajuste": 5468,
      "Ġarbitrario": 5469,
      "Ġsignatarios": 5470,
      "Ġfactorizar": 5471,
      "Ġvenga": 5472,
      "Ġsostenidos": 5473,
      "Ġcancele": 5474,
      "Ġsujeto": 5475,
      "ctur": 5476,
      "dÃŃ": 5477,
      "emente": 5478,
      "hor": 5479,
      "Ġsli": 5480,
      "cido": 5481,
      "arlo": 5482,
      "osa": 5483,
      "Ġ'...": 5484,
      "Ġrdi": 5485,
      "die": 5486,
      "Ã¡fico": 5487,
      "Ã¡tica": 5488,
      "Ġparezca": 5489,
      "Ġnoctur": 5490,
      "reg": 5491,
      "Ġimplemente": 5492,
      "maÃ±o": 5493,
      "sea": 5494,
      "Ġdebo": 5495,
      "Ãºe": 5496,
      "Ġwindow": 5497,
      "Ġperfecto": 5498,
      "bierto": 5499,
      "trÃ¡fico": 5500,
      "naciones": 5501,
      "ĠTLS": 5502,
      "ĠtamaÃ±o": 5503,
      "Ġjugada": 5504,
      "ĠHD": 5505,
      "Ġcargo": 5506,
      "Ġnadie": 5507,
      "Ġtratamos": 5508,
      "Ġcoinciden": 5509,
      "Ġautoriza": 5510,
      "Ġ445": 5511,
      "Ġconsistentes": 5512,
      "ĠPrefiero": 5513,
      "Ġlogramos": 5514,
      "Ġincorporar": 5515,
      "Ġtolera": 5516,
      "Ġprohibido": 5517,
      "Ġacuerdo": 5518,
      "aprobaciÃ³n": 5519,
      "Ġconstitucional": 5520,
      "ĠintrusiÃ³n": 5521,
      "Ġrescindido": 5522,
      "Ġcubrir": 5523,
      "Ġdrope": 5524,
      "Ġamigos": 5525,
      "ĠâĬķ": 5526,
      "Ġimpugnaciones": 5527,
      "Ġsliding": 5528,
      "Ġnocturno": 5529,
      "gir": 5530,
      "otencia": 5531,
      "ses": 5532,
      "Ġ([(": 5533,
      "uno": 5534,
      "Ġ';": 5535,
      "Ġunificar": 5536,
      "ĠfÃ¡": 5537,
      "Ġparcial": 5538,
      "mular": 5539,
      "ĠCTO": 5540,
      "Ġrespe": 5541,
      "ĠUser": 5542,
      "ĠTiene": 5543,
      "Ġdetectados": 5544,
      "Ġexpresarlo": 5545,
      "ity": 5546,
      "ĠcreaciÃ³n": 5547,
      "Ġinicialmente": 5548,
      "Ġoper": 5549,
      "Ġdistinto": 5550,
      "Ġmaliciosa": 5551,
      "Ġmodelarlo": 5552,
      "Ġadecuados": 5553,
      "Ġgoles": 5554,
      "Ġadvertencia": 5555,
      "Ġpermitidas": 5556,
      "Ġmanifiesta": 5557,
      "Ġporcentaje": 5558,
      "Ġcompetitivo": 5559,
      "Ġperspectiva": 5560,
      "Ambas": 5561,
      "Ambos": 5562,
      "Me": 5563,
      "ata": 5564,
      "br": 5565,
      "grue": 5566,
      "iones": 5567,
      "ub": 5568,
      "viendo": 5569,
      "erv": 5570,
      "esor": 5571,
      "estion": 5572,
      "Ġtesor": 5573,
      "tanto": 5574,
      "entrar": 5575,
      "ĠAM": 5576,
      "))?": 5577,
      "Ġcuestion": 5578,
      "Ġdri": 5579,
      "Ġverla": 5580,
      "Ġwalle": 5581,
      "thod": 5582,
      "dose": 5583,
      "gida": 5584,
      "trica": 5585,
      "bility": 5586,
      "Ġaplicado": 5587,
      "ĠTenemos": 5588,
      "Ġauth": 5589,
      "Ġconfia": 5590,
      "Ġgraves": 5591,
      "Ġrecogida": 5592,
      "Ġ(Â¬(Â¬": 5593,
      "Ġaparecen": 5594,
      "Haya": 5595,
      "Ġinversa": 5596,
      "Ġwhitel": 5597,
      "Ġcuentas": 5598,
      "ĠUsar": 5599,
      "Ġllega": 5600,
      "ĠpuntuaciÃ³n": 5601,
      "Ġpermanentemente": 5602,
      "Ġgarantizar": 5603,
      "Ġhorizontalmente": 5604,
      "ĠprohibiciÃ³n": 5605,
      "ĠcategorÃŃa": 5606,
      "Ġdistribuye": 5607,
      "bypassear": 5608,
      "Ġignora": 5609,
      "ĠdeontolÃ³gico": 5610,
      "Ġpretexto": 5611,
      "Ġjustificada": 5612,
      "Ġdormi": 5613,
      "ĠantibiÃ³tico": 5614,
      "segunda": 5615,
      "ĠpaymentMe": 5616,
      "Ġtesoro": 5617,
      "Ġcuestionar": 5618,
      "Ġdriver": 5619,
      "Ġwallet": 5620,
      "ĠpaymentMethod": 5621,
      "Des": 5622,
      "dice": 5623,
      "ipe": 5624,
      "lice": 5625,
      "nco": 5626,
      "ĠediciÃ³n": 5627,
      "Ġcentro": 5628,
      "Ġterapia": 5629,
      "mpensa": 5630,
      "enten": 5631,
      "Ġparser": 5632,
      "tible": 5633,
      "ĠbÃºs": 5634,
      "Ġprove": 5635,
      "Ġinhibe": 5636,
      "rootear": 5637,
      "ĠEste": 5638,
      "else": 5639,
      "mbolso": 5640,
      "map": 5641,
      "Ġdebido": 5642,
      "queda": 5643,
      "gamos": 5644,
      "Ġpreviene": 5645,
      "check": 5646,
      "Ġactivamos": 5647,
      "Ġcierre": 5648,
      "Ġcinco": 5649,
      "Ġincluyo": 5650,
      "Ġintroducir": 5651,
      "Ġcanal": 5652,
      "Ġmienten": 5653,
      "Ġrecompensa": 5654,
      "Ġregistrar": 5655,
      "Ġrecomend": 5656,
      "Ġdescartado": 5657,
      "Ġcandidatura": 5658,
      "ximizar": 5659,
      "Ġdesactu": 5660,
      "ĠexclusiÃ³n": 5661,
      "Ġutilice": 5662,
      "Ġsilenci": 5663,
      "Ġavanzado": 5664,
      "Ġrevise": 5665,
      "ĠmÃ¡xima": 5666,
      "Ġdicen": 5667,
      "Ġcausal": 5668,
      "Ġestricta": 5669,
      "Ġprotecciones": 5670,
      "ĠcomunicaciÃ³n": 5671,
      "Ġsustituir": 5672,
      "Ġpermitida": 5673,
      "ĠrealizarÃ¡": 5674,
      "ĠcorrecciÃ³n": 5675,
      "Ġcautivo": 5676,
      "Ġdesplegar": 5677,
      "Ġbyte": 5678,
      "ĠbÃºsqueda": 5679,
      "Ġproveedor": 5680,
      "ĠrecomendarÃ¡": 5681,
      "RE": 5682,
      "SA": 5683,
      "lin": 5684,
      "lÃ¡": 5685,
      "ĠÂ¿": 5686,
      "ĠpÃ©r": 5687,
      "ict": 5688,
      "Ġrendi": 5689,
      "Ġnaran": 5690,
      "Ġpreg": 5691,
      "Ġcoma": 5692,
      "Ġnotar": 5693,
      "Ġretri": 5694,
      "anda": 5695,
      "Ġbuscar": 5696,
      "Ġdivi": 5697,
      "mant": 5698,
      "ridades": 5699,
      "irÃ³": 5700,
      "activ": 5701,
      "ĠIdent": 5702,
      "ĠexpirÃ³": 5703,
      "Ġapuntando": 5704,
      "Ġtraducir": 5705,
      "Ġprevenir": 5706,
      "ectores": 5707,
      "ĠratificaciÃ³n": 5708,
      "Ġanular": 5709,
      "Ġverificaciones": 5710,
      "Ġfeatures": 5711,
      "Ġidentificador": 5712,
      "ĠPoC": 5713,
      "Ġaceptar": 5714,
      "Ġtransferencia": 5715,
      "proposiciÃ³n": 5716,
      "Ġrefleje": 5717,
      "Ġidempotencia": 5718,
      "Ġretorn": 5719,
      "gularidades": 5720,
      "Ġincumple": 5721,
      "Ġchecksums": 5722,
      "Ġcomunidad": 5723,
      "Ġparchado": 5724,
      "Ġcentra": 5725,
      "Tenemos": 5726,
      "Ġpesar": 5727,
      "Ġepisodios": 5728,
      "equivalente": 5729,
      "Ġirregularidades": 5730,
      "Ġrendimiento": 5731,
      "Ġnaranja": 5732,
      "Ġretries": 5733,
      "ben": 5734,
      "lor": 5735,
      "xim": 5736,
      "zÃ³": 5737,
      "alta": 5738,
      "Ġtrue": 5739,
      "til": 5740,
      "asta": 5741,
      "Ġentra": 5742,
      "Ġinfiere": 5743,
      "ĠSimi": 5744,
      "Ġenunciados": 5745,
      "estructura": 5746,
      "bido": 5747,
      "eamos": 5748,
      "Ġpreformado": 5749,
      "Ġdetalla": 5750,
      "ĠbloquearÃ¡": 5751,
      "Ġtester": 5752,
      "Ġcometa": 5753,
      "ĠexplÃŃcitos": 5754,
      "Ġrecibido": 5755,
      "ferme": 5756,
      "ĠHasta": 5757,
      "Ġvoto": 5758,
      "Ġderechos": 5759,
      "ĠmÃ©dico": 5760,
      "Ġabiertos": 5761,
      "Ġdesembolso": 5762,
      "Ġtransac": 5763,
      "Ġfatal": 5764,
      "))]<|": 5765,
      "Ġhabitantes": 5766,
      "Ġmasivo": 5767,
      "Ġcapaz": 5768,
      "Ġintencional": 5769,
      "Ġconsulta": 5770,
      "Ġsuperado": 5771,
      "Ġextremo": 5772,
      "ĠmanipulaciÃ³n": 5773,
      "Debe": 5774,
      "Ġimplementado": 5775,
      "ĠdegradaciÃ³n": 5776,
      "Ġeleva": 5777,
      "Ġcorrectos": 5778,
      "comete": 5779,
      "estiÃ³n": 5780,
      "ĠRefinar": 5781,
      "Ġcorrespondiente": 5782,
      "ĠReleer": 5783,
      "ĠSimilar": 5784,
      "fermedad": 5785,
      "()": 5786,
      "40": 5787,
      "fÃŃo": 5788,
      "trea": 5789,
      "wit": 5790,
      "Ġstrea": 5791,
      "Ġago": 5792,
      "Ġalar": 5793,
      "Ġdemos": 5794,
      "Ġtanda": 5795,
      "Ã¡culo": 5796,
      "ĠprÃ³r": 5797,
      "Ġenfermedad": 5798,
      "Ġenterprise": 5799,
      "Ã©di": 5800,
      "roga": 5801,
      "Ġloc": 5802,
      "mientos": 5803,
      "mientras": 5804,
      "ectado": 5805,
      "Ġinterfa": 5806,
      "Ġinternas": 5807,
      "Ġmoral": 5808,
      "Ġprimos": 5809,
      "Ġvote": 5810,
      "ĠRevisando": 5811,
      "Ġlogres": 5812,
      "struc": 5813,
      "Ġregistros": 5814,
      "Ġtrivi": 5815,
      "ĠPoint": 5816,
      "ĠasignaciÃ³n": 5817,
      "Ġsostiene": 5818,
      "Ġinyectar": 5819,
      "Ġimplementamos": 5820,
      "Ġcombinarlas": 5821,
      "âĤ¬": 5822,
      "Ġcontrolado": 5823,
      "Ġreinicio": 5824,
      "'/'": 5825,
      "Ġescaneo": 5826,
      "Ġdescompone": 5827,
      "Ġrelacionada": 5828,
      "Ġautorre": 5829,
      "Ġconsecutivos": 5830,
      "ĠasumirÃ©": 5831,
      "ĠACK": 5832,
      "ĠdesafÃŃo": 5833,
      "Ġengagement": 5834,
      "ficarÃ¡": 5835,
      "brica": 5836,
      "gruente": 5837,
      "ĠIdentificamos": 5838,
      "witch": 5839,
      "Ġstreaming": 5840,
      "Ġagotado": 5841,
      "ĠprÃ³rroga": 5842,
      "HTTP": 5843,
      "TA": 5844,
      "plieg": 5845,
      "tunidad": 5846,
      "zed": 5847,
      "âĨ": 5848,
      "Ġpack": 5849,
      "Ġlados": 5850,
      "Ġconciencia": 5851,
      "Ġencrip": 5852,
      "ĠÂ¬).": 5853,
      "Ġopor": 5854,
      "Ġbac": 5855,
      "Ġinvi": 5856,
      "site": 5857,
      "roken": 5858,
      "ĠEso": 5859,
      "mbo": 5860,
      "Ġsopor": 5861,
      "activa": 5862,
      "ĠIntro": 5863,
      "Ġpaga": 5864,
      "cupÃ³n": 5865,
      "Ġapunta": 5866,
      "estar": 5867,
      "Ġdefinamos": 5868,
      "ved": 5869,
      "Noche": 5870,
      "ĠUS": 5871,
      "Ġcapturamos": 5872,
      "miso": 5873,
      "Ã±ol": 5874,
      "desplieg": 5875,
      "ĠConectores": 5876,
      "Ġgrados": 5877,
      "Ġconducen": 5878,
      "Ġhacerlo": 5879,
      "Ġrangos": 5880,
      "Ġnotificado": 5881,
      "Ġocurran": 5882,
      "Ġseparados": 5883,
      "taria": 5884,
      "proces": 5885,
      "Ġrechazo": 5886,
      "Ġnormas": 5887,
      "Ġencuentre": 5888,
      "Ġsaved": 5889,
      "ĠbÃ¡sicos": 5890,
      "ĠLlamarÃ©": 5891,
      "Ġextremada": 5892,
      "Ġconcurrentes": 5893,
      "Ġdesgloso": 5894,
      "publica": 5895,
      "Ġreconecte": 5896,
      "ĠofuscaciÃ³n": 5897,
      "ĠespaÃ±ol": 5898,
      "Ġsuspendida": 5899,
      "Ġreiniciado": 5900,
      "Ġafeitarse": 5901,
      "positiva": 5902,
      "Ġretrasa": 5903,
      "uthorized": 5904,
      "Ġparticular": 5905,
      "Ġsilogismo": 5906,
      "Ġoportunidad": 5907,
      "Ġbacteri": 5908,
      "Ġextremadamente": 5909,
      "GB": 5910,
      "XOR": 5911,
      "cle": 5912,
      "case": 5913,
      "ima": 5914,
      "monto": 5915,
      "pedido": 5916,
      "vÃ¡lido": 5917,
      "cimiento": 5918,
      "icket": 5919,
      "ormular": 5920,
      "Ġnuestra": 5921,
      "mperatura": 5922,
      "Ġfase": 5923,
      "temperatura": 5924,
      "mode": 5925,
      "Ġout": 5926,
      "tida": 5927,
      "tudes": 5928,
      "ĠpropÃ³sito": 5929,
      "Ġdiarios": 5930,
      "irman": 5931,
      "custo": 5932,
      "ĠPorque": 5933,
      "ĠFormular": 5934,
      "Ġdetectar": 5935,
      "entication": 5936,
      "ĠOp": 5937,
      "ĠorÃ¡culo": 5938,
      "mentaciÃ³n": 5939,
      "Ġdolor": 5940,
      "ĠmodificaciÃ³n": 5941,
      "Ġinvalidation": 5942,
      "ĠformulaciÃ³n": 5943,
      "Ġ802": 5944,
      "Ġfondo": 5945,
      "Ġdirecciones": 5946,
      "Ġasser": 5947,
      "Ġrecurso": 5948,
      "Ġavance": 5949,
      "Ġveraces": 5950,
      "Ġusemos": 5951,
      "Ġsolicitudes": 5952,
      "Ġarrendamiento": 5953,
      "Ġ~(": 5954,
      "Ġdemuestra": 5955,
      "ejamiento": 5956,
      "factor": 5957,
      "Ġgober": 5958,
      "Ġesperar": 5959,
      "Ġapropiada": 5960,
      "Ġcorporativa": 5961,
      "Ġdependiente": 5962,
      "Ġespacio": 5963,
      "Ġemparejamiento": 5964,
      "Ġdejarlo": 5965,
      "Ġselecciona": 5966,
      "Ġmoratoria": 5967,
      "Ġestrategia": 5968,
      "Ġamenaza": 5969,
      "Ġwhiteliste": 5970,
      "casez": 5971,
      "ambos": 5972,
      "Ġempa": 5973,
      "Ġswitch": 5974,
      "onas": 5975,
      "lacion": 5976,
      "ĠâĪ©": 5977,
      "Ġtec": 5978,
      "dia": 5979,
      "ory": 5980,
      "Ġnotamos": 5981,
      "Ġincurre": 5982,
      "Ġintensas": 5983,
      "ĠDir": 5984,
      "lus": 5985,
      "Ġsonda": 5986,
      "Ġresum": 5987,
      "Ġdata": 5988,
      "cribo": 5989,
      "Ġposibilidades": 5990,
      "Ġincluyendo": 5991,
      "ĠcrÃ©di": 5992,
      "Ġmaximizar": 5993,
      "Ġejecutando": 5994,
      "Ġconjuntas": 5995,
      "ĠAsignamos": 5996,
      "Ġcombinan": 5997,
      "ĠpodrÃŃan": 5998,
      "ĠlÃŃder": 5999,
      "Ġsiguen": 6000,
      "Ġcoincidencia": 6001,
      "Ġniveles": 6002,
      "Ġmemory": 6003,
      "ĠUnauthorized": 6004,
      "Ġautorizan": 6005,
      "Ġganado": 6006,
      "Ġcomprob": 6007,
      "Ġâī¤": 6008,
      "Ġutilidad": 6009,
      "Ġenviarse": 6010,
      "Ġintentamos": 6011,
      "Ġplace": 6012,
      "ĠobservaciÃ³n": 6013,
      "âĪ§Â¬": 6014,
      "Ġrecuperable": 6015,
      "Ġdecida": 6016,
      "Ġresuelve": 6017,
      "ĠdiversificaciÃ³n": 6018,
      "Ġesperado": 6019,
      "Ġcrucial": 6020,
      "bloqueado": 6021,
      "Ġresponse": 6022,
      "Ġposterior": 6023,
      "Ġenfoque": 6024,
      "Ġpenaltis": 6025,
      "Ġllueve": 6026,
      "Ġemparej": 6027,
      "Ġadversativa": 6028,
      "Ġhardeneado": 6029,
      "Ġdrenaje": 6030,
      "Ġconceptos": 6031,
      "Ġimportar": 6032,
      "ĠNecesito": 6033,
      "despliegue": 6034,
      "cy": 6035,
      "lico": 6036,
      "neo": 6037,
      "Ġpunto": 6038,
      "Ã³ma": 6039,
      "Ġconse": 6040,
      "Ġconectar": 6041,
      "Ã¡l": 6042,
      "Ġfirman": 6043,
      "Ġllo": 6044,
      "Ġbroken": 6045,
      "ĠAp": 6046,
      "Ġpropuesta": 6047,
      "may": 6048,
      "ispam": 6049,
      "ĠSRE": 6050,
      "Ġsube": 6051,
      "acuaciÃ³n": 6052,
      "Ġdisting": 6053,
      "Ġwin": 6054,
      "Ġantispam": 6055,
      "tency": 6056,
      "eature": 6057,
      "Ġfallas": 6058,
      "Ġconserv": 6059,
      "ĠDetermin": 6060,
      "pop": 6061,
      "Ġdadas": 6062,
      "Ġmanda": 6063,
      "Ġaplicada": 6064,
      "ĠanÃ³ma": 6065,
      "balance": 6066,
      "merce": 6067,
      "Ġlogging": 6068,
      "ĠevacuaciÃ³n": 6069,
      "Ġdescarte": 6070,
      "Ġidentifican": 6071,
      "Ġregistrados": 6072,
      "Ġefectiva": 6073,
      "Ġsituaciones": 6074,
      "Ġventaja": 6075,
      "Ġaeropuerto": 6076,
      "Ġenfoca": 6077,
      "ĠDLQ": 6078,
      "Ġintrusiones": 6079,
      "Ġignor": 6080,
      "Ġlleno": 6081,
      "Ġnotificar": 6082,
      "Ġinversor": 6083,
      "Ġtorneo": 6084,
      "dumpear": 6085,
      "commerce": 6086,
      "ĠOAuth": 6087,
      "Ġsobrecargado": 6088,
      "Ġoficial": 6089,
      "Ġenfatiza": 6090,
      "regis": 6091,
      "Ġdropeado": 6092,
      "Ġconsejo": 6093,
      "Ġlloviendo": 6094,
      "of": 6095,
      "ocio": 6096,
      "Ġeduc": 6097,
      "Ġcueva": 6098,
      "escribir": 6099,
      "uedo": 6100,
      "ĠÂ¬[(": 6101,
      "tifique": 6102,
      "Ġbot": 6103,
      "reint": 6104,
      "Ġinferencia": 6105,
      "Ġverifico": 6106,
      "maximiza": 6107,
      "Ġfalsos": 6108,
      "Ġcomplemento": 6109,
      "Ġnegado": 6110,
      "Ġnegocio": 6111,
      "Ġentregado": 6112,
      "ĠSigo": 6113,
      "usamos": 6114,
      "Ġforo": 6115,
      "conseguir": 6116,
      "Ġdetec": 6117,
      "Ġterceros": 6118,
      "Ġmape": 6119,
      "ĠRelacion": 6120,
      "Ġexplor": 6121,
      "Ġquienes": 6122,
      "Ġ((Â¬(": 6123,
      "Ġtarget": 6124,
      "Ġevite": 6125,
      "Ġcontrole": 6126,
      "plicador": 6127,
      "Ġdeshabili": 6128,
      "Ġnegativas": 6129,
      "Ġdescargas": 6130,
      "Ġexistir": 6131,
      "produc": 6132,
      "hasta": 6133,
      "cuentras": 6134,
      "Ġelegido": 6135,
      "Ġunirte": 6136,
      "Ġlicenci": 6137,
      "Ġincorpor": 6138,
      "Ġmuj": 6139,
      "Ġmultifactor": 6140,
      "Ġmultiplicador": 6141,
      "Ġpromocional": 6142,
      "Ġcustodios": 6143,
      "Ġingresar": 6144,
      "Ġacuerdan": 6145,
      "Ġracionales": 6146,
      "Ġdigital": 6147,
      "Ġmencionan": 6148,
      "Ġprobar": 6149,
      "Ġencendi": 6150,
      "Ġfeed": 6151,
      "ĠfallÃ³": 6152,
      "ĠcategÃ³rico": 6153,
      "Ġsingular": 6154,
      "captura": 6155,
      "Ġeduca": 6156,
      "Ġlicenciante": 6157,
      "Ge": 6158,
      "ax": 6159,
      "atario": 6160,
      "cto": 6161,
      "ficos": 6162,
      "feature": 6163,
      "neal": 6164,
      "Ġabra": 6165,
      "Ġdef": 6166,
      "oso": 6167,
      "Ġlatency": 6168,
      "Ġcongruente": 6169,
      "tacado": 6170,
      "date": 6171,
      "racra": 6172,
      "entarios": 6173,
      "total": 6174,
      "Ġfoco": 6175,
      "ĠparÃ¡me": 6176,
      "ĠâĪ¨;": 6177,
      "asi": 6178,
      "Ġprogreso": 6179,
      "Ġexteri": 6180,
      "Ġnecesitar": 6181,
      "rity": 6182,
      "Ġintracra": 6183,
      "resiÃ³n": 6184,
      "Ġexplica": 6185,
      "ĠDC": 6186,
      "Ġprimaria": 6187,
      "Ġgluc": 6188,
      "empla": 6189,
      "ĠRecon": 6190,
      "Ġrepi": 6191,
      "user": 6192,
      "ĠpermitirÃ¡": 6193,
      "geo": 6194,
      "uestras": 6195,
      "Ġobten": 6196,
      "Ġseguida": 6197,
      "Ġincluido": 6198,
      "Ġadicionalmente": 6199,
      "Ġestablecer": 6200,
      "Ġcomentarios": 6201,
      "lando": 6202,
      "Ġgenerales": 6203,
      "Ġsimplifico": 6204,
      "ĠvolÃ¡": 6205,
      "Ġformalmente": 6206,
      "meter": 6207,
      "Ġdespliegues": 6208,
      "Ġupdate": 6209,
      "Ġaborta": 6210,
      "ĠiniciarÃ¡": 6211,
      "idamente": 6212,
      "Ġdescarta": 6213,
      "ĠPodrÃŃa": 6214,
      "ĠespecÃŃficamente": 6215,
      "ĠespecÃŃficos": 6216,
      "Ġconsiderando": 6217,
      "ĠÃŃtems": 6218,
      "ĠJunto": 6219,
      "Ġtime": 6220,
      "Ġreproducir": 6221,
      "Ġhandling": 6222,
      "permi": 6223,
      "Ġconsiderarse": 6224,
      "Ġavanzar": 6225,
      "Ġveracidad": 6226,
      "Ġllevar": 6227,
      "Ġrouting": 6228,
      "Ġsala": 6229,
      "ĠbÃ¡sico": 6230,
      "Ġjuntos": 6231,
      "Ġcustom": 6232,
      "TFGe": 6233,
      "excepto": 6234,
      "ĠelectrÃ³nico": 6235,
      "Ġconsecutivas": 6236,
      "Ġinversores": 6237,
      "ĠidÃ©ntico": 6238,
      "Ġcontacto": 6239,
      "Ġdivisores": 6240,
      "ĠprohÃŃba": 6241,
      "ĠclimÃ¡ticas": 6242,
      "Ġsintax": 6243,
      "Ġdependencias": 6244,
      "ataque": 6245,
      "Ġalarma": 6246,
      "Ġempaque": 6247,
      "Ġganadora": 6248,
      "ĠparÃ¡metros": 6249,
      "Ġexterior": 6250,
      "Ġintracraneal": 6251,
      "ĠReconstru": 6252,
      "ĠvolÃ¡til": 6253,
      "Ġsintaxis": 6254,
      "NC": 6255,
      "Ob": 6256,
      "PelÃŃcula": 6257,
      "WS": 6258,
      "amino": 6259,
      "firma": 6260,
      "har": 6261,
      "snapshot": 6262,
      "uber": 6263,
      "cina": 6264,
      "devo": 6265,
      "Ġpide": 6266,
      "Ġpeti": 6267,
      "Ġesco": 6268,
      "arla": 6269,
      "ĠaÃ±o": 6270,
      "Ġconcent": 6271,
      "Ġri": 6272,
      "dano": 6273,
      "Ġsite": 6274,
      "Ġlongitud": 6275,
      "cionado": 6276,
      "Ġcocina": 6277,
      "Ġdisfra": 6278,
      "Ġwa": 6279,
      "Ġtratado": 6280,
      "ĠtendrÃ¡": 6281,
      "Ġpotencia": 6282,
      "ĠRSA": 6283,
      "Ġcumplimiento": 6284,
      "Ġpositivos": 6285,
      "iobra": 6286,
      "Ġmaniobra": 6287,
      "rupo": 6288,
      "arÃ¡n": 6289,
      "Ġbasado": 6290,
      "Ġbasadas": 6291,
      "Ġconcluye": 6292,
      "seguro": 6293,
      "Ġrepresentada": 6294,
      "Ġaborda": 6295,
      "Ġasignaremos": 6296,
      "ĠasignÃ©mosle": 6297,
      "Ġregistran": 6298,
      "Ġvisu": 6299,
      "fallarÃ¡": 6300,
      "Todas": 6301,
      "Ġexistan": 6302,
      "obtienes": 6303,
      "ĠmostrarÃ¡": 6304,
      "Ġalert": 6305,
      "Ġanalizar": 6306,
      "Ġliberen": 6307,
      "Ġquieres": 6308,
      "netes": 6309,
      "ĠContinuar": 6310,
      "Ġingresa": 6311,
      "ĠjustificaciÃ³n": 6312,
      "Ġstrict": 6313,
      "Ġsublicencia": 6314,
      "Ġreservadas": 6315,
      "Ġhacking": 6316,
      "Ġdisyuntiva": 6317,
      "Ġeditar": 6318,
      "Ġelige": 6319,
      "Ġciudadano": 6320,
      "ĠpÃ©rdida": 6321,
      "ĠUSD": 6322,
      "Ġconservador": 6323,
      "ubernetes": 6324,
      "Ġdisfrazada": 6325,
      "MR": 6326,
      "bb": 6327,
      "dul": 6328,
      "inte": 6329,
      "mes": 6330,
      "nanza": 6331,
      "oS": 6332,
      "talidad": 6333,
      "ĠÃ³r": 6334,
      "Ġclus": 6335,
      "ĠâĢ": 6336,
      "Ġptra": 6337,
      "Ġesencia": 6338,
      "Ġcongreso": 6339,
      "Ġrad": 6340,
      "Ġticket": 6341,
      "Ġcovera": 6342,
      "Ġreduce": 6343,
      "Ġreemb": 6344,
      "tis": 6345,
      "Ġinhibi": 6346,
      "sidero": 6347,
      "ĠAmas": 6348,
      "ĠPuedo": 6349,
      "rib": 6350,
      "set": 6351,
      "ĠâĨĶ)": 6352,
      "Ġdelta": 6353,
      "Ġfalse": 6354,
      "Ġdescu": 6355,
      "Ġpagado": 6356,
      "Ġatrib": 6357,
      "Ġcorto": 6358,
      "ĠRel": 6359,
      "blist": 6360,
      "usr": 6361,
      "Ġciertos": 6362,
      "ĠTime": 6363,
      "ĠcontraposiciÃ³n": 6364,
      "Ġprescribir": 6365,
      "Ġmanteniendo": 6366,
      "Ġseguir": 6367,
      "Ġsignificativo": 6368,
      "Ġ(âĨĴ):": 6369,
      "ĠasÃŃn": 6370,
      "Ġconfigura": 6371,
      "ĠMant": 6372,
      "tinivel": 6373,
      "Ġimpri": 6374,
      "Ġimpedir": 6375,
      "stante": 6376,
      "denes": 6377,
      "Ġlogrado": 6378,
      "Ġexacto": 6379,
      "Ġiniciar": 6380,
      "Ġmultinivel": 6381,
      "Ġapruebe": 6382,
      "Ġfuncionan": 6383,
      "Ġcompatibles": 6384,
      "Ġoffset": 6385,
      "Ġsanitiza": 6386,
      "permite": 6387,
      "Ġefectividad": 6388,
      "Ġplainte": 6389,
      "Ġsospechosos": 6390,
      "Ġmigraciones": 6391,
      "priori": 6392,
      "Ġone": 6393,
      "Ġrealice": 6394,
      "Ġhabilitados": 6395,
      "ĠÂ¬((((": 6396,
      "Ġdescrita": 6397,
      "Ġdescrito": 6398,
      "Ġdescriben": 6399,
      "Ġcontroladas": 6400,
      "Ġadvertencias": 6401,
      "Ġpeligro": 6402,
      "Ġasegurando": 6403,
      "Ġcustodia": 6404,
      "Ġsalientes": 6405,
      "Ġcolumna": 6406,
      "Ġredirigir": 6407,
      "Ġthrottlea": 6408,
      "Ġdrenado": 6409,
      "Ġfacturas": 6410,
      "Ġsecurity": 6411,
      "Ġrenuncia": 6412,
      "ĠSustituyendo": 6413,
      "Ġcartera": 6414,
      "ĠfÃ¡brica": 6415,
      "Ġautorreferencia": 6416,
      "Ġpacket": 6417,
      "Ġoutput": 6418,
      "Ġgobernanza": 6419,
      "Ġexplorer": 6420,
      "ĠÃ³rdenes": 6421,
      "Ġcluster": 6422,
      "Ġptrace": 6423,
      "Ġradar": 6424,
      "Ġcoverage": 6425,
      "ĠAmass": 6426,
      "Ġplaintext": 6427,
      "au": 6428,
      "cun": 6429,
      "fun": 6430,
      "hread": 6431,
      "nivel": 6432,
      "oy": 6433,
      "uro": 6434,
      "veg": 6435,
      "Ġconten": 6436,
      "inas": 6437,
      "Ġeng": 6438,
      "ĠEuro": 6439,
      "Ġinco": 6440,
      "Ġinicia": 6441,
      "Ġcuales": 6442,
      "tual": 6443,
      "Ġpropinas": 6444,
      "searse": 6445,
      "ĠCAP": 6446,
      "Ġcaminos": 6447,
      "Ġappro": 6448,
      "vals": 6449,
      "Ã¡lida": 6450,
      "podrÃ¡s": 6451,
      "ĠpredicciÃ³n": 6452,
      "Ġcontrapositiva": 6453,
      "Ġcasa": 6454,
      "Ġautodes": 6455,
      "mbigu": 6456,
      "Ġcheat": 6457,
      "Ġobtienes": 6458,
      "alidades": 6459,
      "Ġletra": 6460,
      "desha": 6461,
      "Ġconsidero": 6462,
      "dependientemente": 6463,
      "ĠMAC": 6464,
      "ĠMimikatz": 6465,
      "ĠMMR": 6466,
      "Ġcombinando": 6467,
      "Ġnaveg": 6468,
      "Ġdeclaradas": 6469,
      "Ġbypassed": 6470,
      "ĠUniÃ³n": 6471,
      "Ġcircun": 6472,
      "Ġcoincidan": 6473,
      "Ġdestinatario": 6474,
      "Ġaccede": 6475,
      "âĪĢ": 6476,
      "Ġhechos": 6477,
      "Ġsaltar": 6478,
      "Ġsaluda": 6479,
      "Ġagregar": 6480,
      "Ġequipos": 6481,
      "Ġrespuestas": 6482,
      "Ġmaster": 6483,
      "logÃŃas": 6484,
      "Ġdicho": 6485,
      "ĠTodas": 6486,
      "Ġgadgets": 6487,
      "Ġacuerden": 6488,
      "Ġparafrasearse": 6489,
      "envÃŃo": 6490,
      "Ġasociatividad": 6491,
      "Ġintermediate": 6492,
      "Ġinteracciones": 6493,
      "Ġenzima": 6494,
      "Ġinfracciones": 6495,
      "âĨĴ": 6496,
      "Ġdistingu": 6497,
      "producto": 6498,
      "Ġmujeres": 6499,
      "ĠEuropea": 6500,
      "Ġapprovals": 6501,
      "Ġnavegador": 6502,
      "Ġcircunsta": 6503,
      "Ġsaludable": 6504,
      "WD": 6505,
      "bicaciÃ³n": 6506,
      "ey": 6507,
      "fo": 6508,
      "imp": 6509,
      "izada": 6510,
      "mica": 6511,
      "Ġpwn": 6512,
      "lante": 6513,
      "ergencia": 6514,
      "escribo": 6515,
      "ĠâĪĢ": 6516,
      "Ġcontenga": 6517,
      "ortaciÃ³n": 6518,
      "tancia": 6519,
      "Ġsiren": 6520,
      "entr": 6521,
      "ĠubicaciÃ³n": 6522,
      "ĠLinux": 6523,
      "sible": 6524,
      "ÃŃst": 6525,
      "ĠPipe": 6526,
      "tuito": 6527,
      "Ġdisable": 6528,
      "reshol": 6529,
      "Ġdestacado": 6530,
      "ĠexportaciÃ³n": 6531,
      "Ġmomento": 6532,
      "trol": 6533,
      "Ġdeprec": 6534,
      "ĠmantendrÃ¡": 6535,
      "emergencia": 6536,
      "ĠReescribo": 6537,
      "ĠConsidero": 6538,
      "Ġrepresente": 6539,
      "ĠnÃºcle": 6540,
      "Ġdescentr": 6541,
      "Ġprocesador": 6542,
      "Ġmodificada": 6543,
      "Ġvariante": 6544,
      "Hayas": 6545,
      "Ġevent": 6546,
      "ĠoposiciÃ³n": 6547,
      "Ġtienda": 6548,
      "PASS": 6549,
      "Ġsiguiendo": 6550,
      "Ġdeseada": 6551,
      "Ġthreshol": 6552,
      "Ġcompatibility": 6553,
      "Ġenviados": 6554,
      "ĠNOPASS": 6555,
      "Ġespecialmente": 6556,
      "Ġllevan": 6557,
      "Ġuniversales": 6558,
      "Ġobligaciones": 6559,
      "Ġsecue": 6560,
      "Ġsecre": 6561,
      "ĠKASLR": 6562,
      "Ġvalores": 6563,
      "Ġresultando": 6564,
      "ĠterminaciÃ³n": 6565,
      "estamos": 6566,
      "Ġincremental": 6567,
      "Ġinvolucradas": 6568,
      "Ġextremas": 6569,
      "Ġpersonalizada": 6570,
      "Ġingrese": 6571,
      "Ġreprocesado": 6572,
      "Ġreflejan": 6573,
      "Ġcede": 6574,
      "Ġceder": 6575,
      "ĠfacturaciÃ³n": 6576,
      "ĠaplicarÃ¡": 6577,
      "Ġinterceptar": 6578,
      "defino": 6579,
      "abordar": 6580,
      "ĠSublist": 6581,
      "autenticaciÃ³n": 6582,
      "Ġpregunta": 6583,
      "HTTPS": 6584,
      "ĠDirty": 6585,
      "registro": 6586,
      "Ġencendidas": 6587,
      "Ġabordaje": 6588,
      "ĠâĢĵ": 6589,
      "Ġincompa": 6590,
      "Ġdisabled": 6591,
      "ĠnÃºcleo": 6592,
      "Ġthreshold": 6593,
      "ĠNOPASSWD": 6594,
      "Agent": 6595,
      "Id": 6596,
      "Pro": 6597,
      "Re": 6598,
      "cente": 6599,
      "eza": 6600,
      "lismo": 6601,
      "tero": 6602,
      "yen": 6603,
      "lador": 6604,
      "ĠelÃ©": 6605,
      "diendo": 6606,
      "orti": 6607,
      "Ġnada": 6608,
      "Ġlsas": 6609,
      "mpli": 6610,
      "Ġcolo": 6611,
      "mod": 6612,
      "Ġbus": 6613,
      "Ġblan": 6614,
      "ĠAWS": 6615,
      "Ġaline": 6616,
      "Ġsomos": 6617,
      "Ġportero": 6618,
      "tramos": 6619,
      "Ġdebidamente": 6620,
      "miremos": 6621,
      "ĠgestiÃ³n": 6622,
      "fieren": 6623,
      "solismo": 6624,
      "Ġclasi": 6625,
      "Ġprev": 6626,
      "Ġfinales": 6627,
      "gua": 6628,
      "ercorti": 6629,
      "ĠNoven": 6630,
      "Ġmiss": 6631,
      "ĠteorÃŃa": 6632,
      "duzca": 6633,
      "Ġmarcada": 6634,
      "ĠmÃºltiplo": 6635,
      "Ġimpi": 6636,
      "Ġpayloads": 6637,
      "Ġadministradores": 6638,
      "Ġagrupan": 6639,
      "Ġninguno": 6640,
      "Ġconsideramos": 6641,
      "Ġlegibilidad": 6642,
      "Ġfactible": 6643,
      "Ġmaliciosas": 6644,
      "Esto": 6645,
      "Ġexclusivo": 6646,
      "Ġlimit": 6647,
      "Ġcomprometer": 6648,
      "Ġcomprometida": 6649,
      "necesario": 6650,
      "Ġpostcondiciones": 6651,
      "ĠExamino": 6652,
      "Ġconfirmar": 6653,
      "Ġregionalmente": 6654,
      "Ġacumulada": 6655,
      "build": 6656,
      "Ġincumplido": 6657,
      "Ġsatisfacer": 6658,
      "denadas": 6659,
      "Ġclientes": 6660,
      "ĠadministrarÃ¡": 6661,
      "tests": 6662,
      "Ġintegrarlo": 6663,
      "Ġalgunos": 6664,
      "Ġdesambigu": 6665,
      "Ġconfiables": 6666,
      "DespuÃ©s": 6667,
      "Ġretornar": 6668,
      "Ġdemostrar": 6669,
      "Ġtrivial": 6670,
      "Ġwhitelisted": 6671,
      "Ġeducativo": 6672,
      "ĠelÃ©c": 6673,
      "Ġlsass": 6674,
      "Ġblanca": 6675,
      "ercortisolismo": 6676,
      "ĠNoveno": 6677,
      "ER": 6678,
      "ION": 6679,
      "NION": 6680,
      "SO": 6681,
      "TH": 6682,
      "ame": 6683,
      "dro": 6684,
      "fender": 6685,
      "gre": 6686,
      "mor": 6687,
      "ocurre": 6688,
      "pada": 6689,
      "ud": 6690,
      "utas": 6691,
      "ys": 6692,
      "yente": 6693,
      "Ġescasez": 6694,
      "independientemente": 6695,
      "tamp": 6696,
      "Ġretras": 6697,
      "Ġbrecha": 6698,
      "ĠAj": 6699,
      "ĠAplica": 6700,
      "ĠAÃ±ado": 6701,
      "Ġcubierto": 6702,
      "ĠPer": 6703,
      "ĠestÃ¡tico": 6704,
      "Ġversion": 6705,
      "ista": 6706,
      "ismos": 6707,
      "Ġsuma": 6708,
      "lio": 6709,
      "acumula": 6710,
      "Ġdistancia": 6711,
      "ĠCar": 6712,
      "Ġdesof": 6713,
      "Ġexpuestos": 6714,
      "nota": 6715,
      "ĠDel": 6716,
      "Ġantici": 6717,
      "ĠatÃ³mico": 6718,
      "Ġinternos": 6719,
      "Ġinterior": 6720,
      "ĠDefender": 6721,
      "ĠVIP": 6722,
      "usas": 6723,
      "Ġexpresiones": 6724,
      "Ġpermitiendo": 6725,
      "ĠUNION": 6726,
      "Ġcieg": 6727,
      "ĠTe": 6728,
      "Ġsignificativamente": 6729,
      "intenta": 6730,
      "Ġflash": 6731,
      "ĠcrÃ³n": 6732,
      "Ġanule": 6733,
      "Ġcomen": 6734,
      "pass": 6735,
      "Ġvulnerables": 6736,
      "Ġ(âĪ§):": 6737,
      "ĠprocesarÃ¡": 6738,
      "Ġafeitado": 6739,
      "Ġcombinado": 6740,
      "Ġprogramable": 6741,
      "Ġhipercortisolismo": 6742,
      "Ġdesempa": 6743,
      "Ġ201": 6744,
      "ĠEnsamblar": 6745,
      "Ġdescuentos": 6746,
      "ducimos": 6747,
      "Ġmatching": 6748,
      "Ġreprogra": 6749,
      "Ġsalud": 6750,
      "Ġuniversaliza": 6751,
      "necesitamos": 6752,
      "Ġexperimentales": 6753,
      "Ġtransitividad": 6754,
      "ĠleyÃ³": 6755,
      "liquen": 6756,
      "Ġdenotar": 6757,
      "Ġdenotamos": 6758,
      "ĠdenotarÃ©": 6759,
      "bypasse": 6760,
      "ĠambigÃ¼edades": 6761,
      "presenta": 6762,
      "Ġrentabilidad": 6763,
      "Ġpresentado": 6764,
      "Ġobservadores": 6765,
      "autenticado": 6766,
      "Ġhipo": 6767,
      "Ġparticipante": 6768,
      "ĠSimilarmente": 6769,
      "Ġautodestru": 6770,
      "Ġanticipada": 6771,
      "''": 6772,
      "30": 6773,
      "VPN": 6774,
      "ala": 6775,
      "aplica": 6776,
      "blo": 6777,
      "ler": 6778,
      "pones": 6779,
      "ticamente": 6780,
      "umb": 6781,
      "oss": 6782,
      "Ġconting": 6783,
      "ĠâĪ§).": 6784,
      "ence": 6785,
      "ĠsecciÃ³n": 6786,
      "Ġmita": 6787,
      "entizada": 6788,
      "Ġcopri": 6789,
      "Ġparentizada": 6790,
      "Ġreve": 6791,
      "tidos": 6792,
      "aso": 6793,
      "anci": 6794,
      "Ġcupones": 6795,
      "Ġverse": 6796,
      "riÃ³": 6797,
      "imÃ¡tica": 6798,
      "irÃ©": 6799,
      "Ġdeba": 6800,
      "Ã³rica": 6801,
      "Ġdescribir": 6802,
      "culos": 6803,
      "ĠtraducciÃ³n": 6804,
      "ĠtendrÃ¡s": 6805,
      "Ġembala": 6806,
      "tering": 6807,
      "...')": 6808,
      "untas": 6809,
      "hat": 6810,
      "Ġsobreescribir": 6811,
      "Ġsugieren": 6812,
      "inter": 6813,
      "Ġcross": 6814,
      "Ġgran": 6815,
      ")]}.": 6816,
      "origen": 6817,
      "ĠMÃ¡s": 6818,
      "ĠabriÃ³": 6819,
      "mentir": 6820,
      "Ġformas": 6821,
      "candida": 6822,
      "ĠsupresiÃ³n": 6823,
      "Ġviolar": 6824,
      "ĠNmap": 6825,
      "Ġcorresponden": 6826,
      "Ġhole": 6827,
      "ĠDescompon": 6828,
      "ĠalcanzÃ³": 6829,
      "ĠimplÃŃcitas": 6830,
      "Ġasignamos": 6831,
      "Ġdirectos": 6832,
      "Ġadelante": 6833,
      "Ġcompromete": 6834,
      "Ġemitidos": 6835,
      "Ġfinita": 6836,
      "Ġfinanci": 6837,
      "Ġcapturemos": 6838,
      "Ġloguear": 6839,
      "Ġdevol": 6840,
      "Ġcifrada": 6841,
      "Ġsecundario": 6842,
      "Ġcambiar": 6843,
      "ĠSMEP": 6844,
      "Ġmigrations": 6845,
      "ĠnotarizaciÃ³n": 6846,
      "ĠdinÃ¡micas": 6847,
      "Ġsustituido": 6848,
      "ĠevalÃºe": 6849,
      "Ġproyectado": 6850,
      "Ġinference": 6851,
      "Ġfielmente": 6852,
      "ĠintentarÃ¡": 6853,
      "tester": 6854,
      "Ġtorren": 6855,
      "Ġllamada": 6856,
      "ĠenzimÃ¡tica": 6857,
      "Ġinfractor": 6858,
      "Ġcorrupta": 6859,
      "Ġcorrupto": 6860,
      "ĠprÃ³xima": 6861,
      "Ġdividir": 6862,
      "Ġassertions": 6863,
      "capturamos": 6864,
      "Ġdefensas": 6865,
      "Ġrepite": 6866,
      "snapshots": 6867,
      "Ġwatering": 6868,
      "ĠManten": 6869,
      "Ġcircunstancias": 6870,
      "Ġmitad": 6871,
      "Ġembalaje": 6872,
      ")âĪ¨": 6873,
      "BAC": 6874,
      "Int": 6875,
      "TM": 6876,
      "Usu": 6877,
      "Usamos": 6878,
      "^(": 6879,
      "kip": 6880,
      "mÃ¡s": 6881,
      "rst": 6882,
      "tentes": 6883,
      "ySQL": 6884,
      "cialmente": 6885,
      "Ġpul": 6886,
      "Ġpick": 6887,
      "Ġdefa": 6888,
      "Ġnuestras": 6889,
      "Ġmundo": 6890,
      "entest": 6891,
      "cionalidad": 6892,
      "Ġpares": 6893,
      "Ġparty": 6894,
      "ĠEleg": 6895,
      "Ġnota": 6896,
      "Ġreempla": 6897,
      "Ġhist": 6898,
      "Ġhab": 6899,
      "Ġhabili": 6900,
      "ĠParÃ©": 6901,
      "quiere": 6902,
      "Ġsometer": 6903,
      "anti": 6904,
      "Ġpueblo": 6905,
      "nologÃŃas": 6906,
      "ducen": 6907,
      "Ġactivan": 6908,
      "circu": 6909,
      "ult": 6910,
      "ĠdaÃ±": 6911,
      "terar": 6912,
      "ĠRec": 6913,
      "Ġexitosas": 6914,
      "ĠVAR": 6915,
      "ĠposiciÃ³n": 6916,
      "vertir": 6917,
      "Ġ11": 6918,
      "Ġpermisivo": 6919,
      "ĠUsamos": 6920,
      "Ġautent": 6921,
      "Ġmayores": 6922,
      "Ġdetectadas": 6923,
      "Ġincluyen": 6924,
      "ĠFormulo": 6925,
      "Ġgratis": 6926,
      "ferido": 6927,
      "Ġagrupo": 6928,
      "mentos": 6929,
      "serÃ¡": 6930,
      "Ġarterial": 6931,
      "ĠsÃŃmbo": 6932,
      "Ġidentidades": 6933,
      "Ġburst": 6934,
      "Ġinstala": 6935,
      "Ġagrupada": 6936,
      "ĠDesde": 6937,
      "Ġcircula": 6938,
      "Ġrecomiende": 6939,
      "Ġobjetivos": 6940,
      "Ġdirectivo": 6941,
      "ĠlegÃŃtima": 6942,
      "ĠCISO": 6943,
      "Ġhacemos": 6944,
      "Ġelegibilidad": 6945,
      "Ġconocidas": 6946,
      "ĠtÃŃpica": 6947,
      "Ġsolicita": 6948,
      "Ġcargados": 6949,
      "Ġincorrecto": 6950,
      "tengamos": 6951,
      "Ġmensualidades": 6952,
      "ĠconfirmarÃ¡": 6953,
      "Ġcontrolada": 6954,
      "Ġestablecidas": 6955,
      "Ġderivar": 6956,
      "ĠinflaciÃ³n": 6957,
      "Ġmantengamos": 6958,
      "ĠsustituciÃ³n": 6959,
      "legal": 6960,
      "Ġconceda": 6961,
      "ĠreconexiÃ³n": 6962,
      "Ġincidentes": 6963,
      "fallo": 6964,
      "ĠabortarÃ¡": 6965,
      "Ġrealizando": 6966,
      "Ġambiguo": 6967,
      "Ġproblema": 6968,
      "Ġtimestamps": 6969,
      "Ġvisibles": 6970,
      "Ġajustarse": 6971,
      "Inclu": 6972,
      "Ġsecure": 6973,
      "ĠfinanciaciÃ³n": 6974,
      "Ġfinanciamiento": 6975,
      "Ġprobable": 6976,
      "manten": 6977,
      "Ġelevados": 6978,
      "ĠtecnologÃŃas": 6979,
      "devoluciÃ³n": 6980,
      "Ġrival": 6981,
      "Ġdesambiguar": 6982,
      "ĠelÃ©ctrica": 6983,
      "Ġdesofuscar": 6984,
      "Ġcoprimo": 6985,
      ")âĪ¨(": 6986,
      "Usuario": 6987,
      "Ġpickup": 6988,
      "Ġdefault": 6989,
      "ĠhistÃ³rica": 6990,
      "ĠParÃ©ntesis": 6991,
      "vertirÃ©": 6992,
      "ĠsÃŃmbolos": 6993,
      "Esta": 6994,
      "Hz": 6995,
      "Valida": 6996,
      "edad": 6997,
      "gÃ¼e": 6998,
      "nd": 6999,
      "oo": 7000,
      "pecta": 7001,
      "ry": 7002,
      "sec": 7003,
      "xico": 7004,
      "xting": 7005,
      "Ġ),": 7006,
      "Ġpus": 7007,
      "Ġesenci": 7008,
      "Ġespecta": 7009,
      "erten": 7010,
      "Ġais": 7011,
      "uentro": 7012,
      "enso": 7013,
      "direc": 7014,
      "ordenadas": 7015,
      "entimiento": 7016,
      "Ġvs": 7017,
      "Ġcoordenadas": 7018,
      "Ġodio": 7019,
      "Ġreferencias": 7020,
      "Ġentiende": 7021,
      "Ġinesta": 7022,
      "Ġinstruc": 7023,
      "))),": 7024,
      ")))))<|": 7025,
      "elcome": 7026,
      "Ġserver": 7027,
      "irÃ¡": 7028,
      "irse": 7029,
      "Ġcompletas": 7030,
      "Ġconsenso": 7031,
      "Ġconsentimiento": 7032,
      "usar": 7033,
      "versiÃ³n": 7034,
      "conciencia": 7035,
      "Ġexpresamente": 7036,
      "sable": 7037,
      "Ġaplicando": 7038,
      "mbito": 7039,
      "Ġobstante": 7040,
      "Ġmate": 7041,
      "Ã¡ndose": 7042,
      "Ġzonas": 7043,
      "Ġasistencia": 7044,
      "Ġrecientes": 7045,
      "Ġexplota": 7046,
      "Ġconcluyentes": 7047,
      "ĠMySQL": 7048,
      "Ġprocesarse": 7049,
      "chear": 7050,
      "ĠejecutÃ¡ndose": 7051,
      "ĠEntity": 7052,
      "Ġdeclarar": 7053,
      "ĠWrite": 7054,
      "Ġsupuestos": 7055,
      "ĠantigÃ¼e": 7056,
      "alizaciones": 7057,
      "ĠUnproces": 7058,
      "Ġopuesto": 7059,
      "ĠfuncionarÃ¡": 7060,
      "Ġasignada": 7061,
      "ejec": 7062,
      "Ġsostenerse": 7063,
      "Ġprivilegiadas": 7064,
      "ĠGHz": 7065,
      "ĠreproducciÃ³n": 7066,
      "Ġsospecha": 7067,
      "Ġrefunds": 7068,
      "Ġrepresentan": 7069,
      "Ġsale": 7070,
      "Ġauditado": 7071,
      "Ġconocimiento": 7072,
      "ĠaÃ±adir": 7073,
      "Ġrelacionados": 7074,
      "Ġrevisado": 7075,
      "Ġsuperan": 7076,
      "ĠÃ¡rbitros": 7077,
      "ĠbÃ¡sica": 7078,
      "Ġalmacena": 7079,
      "debemos": 7080,
      "Ġsatisfa": 7081,
      "Ġgarantizado": 7082,
      "Ġvinculante": 7083,
      "Ġdesarrollador": 7084,
      "Ġpeligrosa": 7085,
      "ĠdeontologÃŃa": 7086,
      "ĠimplementaciÃ³n": 7087,
      "ĠÃ¡mbito": 7088,
      "Ġproblemas": 7089,
      "ĠAsumo": 7090,
      "Ġreconoce": 7091,
      "Ġpretexting": 7092,
      "Ġsistemas": 7093,
      "Ġdivisor": 7094,
      "SQLi": 7095,
      "ĠdejarÃ©": 7096,
      "Ġdebuggeado": 7097,
      "ĠextensiÃ³n": 7098,
      "checkout": 7099,
      "Ġsublicenciatario": 7100,
      "Ġdistinguir": 7101,
      "Ġeventu": 7102,
      "ĠclasificarÃ¡": 7103,
      "Ġuniversalizable": 7104,
      "ĠDescompongo": 7105,
      "Validation": 7106,
      "Ġpush": 7107,
      "Ġesencialmente": 7108,
      "Ġespectador": 7109,
      "Ġinestable": 7110,
      "ĠantigÃ¼edad": 7111,
      "ĠUnprocessable": 7112,
      "15": 7113,
      "Bypas": 7114,
      "Ent": 7115,
      "IDS": 7116,
      "duplica": 7117,
      "garÃ¡": 7118,
      "unte": 7119,
      "way": 7120,
      "dera": 7121,
      "Ġpentest": 7122,
      "Ġesque": 7123,
      "erario": 7124,
      "Ġtro": 7125,
      "encuentras": 7126,
      "tados": 7127,
      "rando": 7128,
      "Ġitin": 7129,
      "Ġreferencia": 7130,
      "red": 7131,
      "Ġinac": 7132,
      "Ġcuad": 7133,
      "Ġalin": 7134,
      "antes": 7135,
      "resivo": 7136,
      "ĠcompletÃ³": 7137,
      "Ġpague": 7138,
      "Ġgate": 7139,
      "bierta": 7140,
      "tence": 7141,
      "ificada": 7142,
      "ĠestadÃŃ": 7143,
      "Ġexceder": 7144,
      "Ġinterrup": 7145,
      "zamos": 7146,
      "zable": 7147,
      "zaje": 7148,
      "Ġregula": 7149,
      "ĠVerificamos": 7150,
      "Ġexpreso": 7151,
      "Ġcontradice": 7152,
      "Ġsuficiencia": 7153,
      "ĠReformular": 7154,
      "ĠControl": 7155,
      "Ġsubmit": 7156,
      "Ġrecientemente": 7157,
      "Ġagresivo": 7158,
      "Ġdivisibles": 7159,
      "tificado": 7160,
      "Ġprocese": 7161,
      "Ġimpres": 7162,
      "supera": 7163,
      "Ġforman": 7164,
      "ĠÃºltimas": 7165,
      "Ġcrea": 7166,
      "Ġaborto": 7167,
      "Ġfueron": 7168,
      "Ġviolatorio": 7169,
      "Ġidentificamos": 7170,
      "Ġidentificadores": 7171,
      "Ġschedul": 7172,
      "Ġscripts": 7173,
      "ĠGB": 7174,
      "Ġpersistence": 7175,
      "Ġhecha": 7176,
      "Todo": 7177,
      "Ġaire": 7178,
      "SSH": 7179,
      "ĠKubernetes": 7180,
      "Ġconfirmando": 7181,
      "Ġoculta": 7182,
      "ĠterminarÃ¡": 7183,
      "Ġevadido": 7184,
      "Ġdesglosa": 7185,
      "Ġviolento": 7186,
      "Ġpausado": 7187,
      "Ġ(((Â¬Â¬": 7188,
      "Ġinyectada": 7189,
      "Ġcapability": 7190,
      "Ġmecanismos": 7191,
      "leak": 7192,
      "Ġalgunas": 7193,
      "Ġcause": 7194,
      "ĠprohÃŃbe": 7195,
      "Ġbueno": 7196,
      "Ġsoportada": 7197,
      "ĠcrÃ©dito": 7198,
      "Ġescolar": 7199,
      "ĠconcentraciÃ³n": 7200,
      "Ġvisualizaciones": 7201,
      "Ġengine": 7202,
      "Ġsirenas": 7203,
      "Ġcontingencia": 7204,
      "candidato": 7205,
      "ĠRecono": 7206,
      "Entonces": 7207,
      "Ġesquema": 7208,
      "Ġitinerario": 7209,
      "Ġgateway": 7210,
      "\"'": 7211,
      "Deb": 7212,
      "Is": 7213,
      "Puede": 7214,
      "Ser": 7215,
      "gÃŃa": 7216,
      "idas": 7217,
      "jug": 7218,
      "otra": 7219,
      "rente": 7220,
      "san": 7221,
      "shot": 7222,
      "utaciÃ³n": 7223,
      "determin": 7224,
      "ondi": 7225,
      "ongo": 7226,
      "laciona": 7227,
      "ergÃŃa": 7228,
      "ĠaÃ±ado": 7229,
      "Ġdemo": 7230,
      "icta": 7231,
      "Ã¡lo": 7232,
      "data": 7233,
      "Ġmemb": 7234,
      "entiva": 7235,
      "ĠenergÃŃa": 7236,
      "Ġvarios": 7237,
      "Ġilegal": 7238,
      "tement": 7239,
      "ĠEC": 7240,
      "Ġestruc": 7241,
      "ĠrevÃ©s": 7242,
      "anas": 7243,
      "Ġprod": 7244,
      "Ġexces": 7245,
      "ĠEse": 7246,
      "Ġpropongo": 7247,
      "ĠSLA": 7248,
      "Ġsocial": 7249,
      "aca": 7250,
      "cede": 7251,
      "cemos": 7252,
      "resÃŃa": 7253,
      "Ġwhe": 7254,
      "Ġactivarse": 7255,
      "Ġactividades": 7256,
      "Ġtop": 7257,
      "Ġtraducen": 7258,
      "Ġintermedio": 7259,
      "Ġfrases": 7260,
      "Ġframes": 7261,
      "gada": 7262,
      "poder": 7263,
      "Ġprepar": 7264,
      "ĠRBAC": 7265,
      "ĠreputaciÃ³n": 7266,
      "Ġ18": 7267,
      "imidad": 7268,
      "Ġexpresada": 7269,
      "ĠUAC": 7270,
      "Ġaplicables": 7271,
      "Ġafirmativos": 7272,
      "Ġstatement": 7273,
      "Ġmapea": 7274,
      "Ġfirewalls": 7275,
      "Ġanteriormente": 7276,
      "Ġorales": 7277,
      "ĠgenÃ©r": 7278,
      "visible": 7279,
      "ĠcardÃŃ": 7280,
      "Ġconcluyente": 7281,
      "Ġgenerar": 7282,
      "ĠinterpretarÃ©": 7283,
      "Ġmodificado": 7284,
      "Ġmedidas": 7285,
      "Ġlogremos": 7286,
      "year": 7287,
      "Ġnegativo": 7288,
      "Ġevicta": 7289,
      "torios": 7290,
      "Ġexpresadas": 7291,
      "Ġdescargar": 7292,
      "Ġretryear": 7293,
      "Ġexternas": 7294,
      "Ġrecurrente": 7295,
      "Ġprivilegiado": 7296,
      "Ġanulado": 7297,
      "Ġreintento": 7298,
      "Ġevitable": 7299,
      "Ġcolateral": 7300,
      "ĠNotamos": 7301,
      "Ġunirlas": 7302,
      "Ġretorno": 7303,
      "Ġleerlo": 7304,
      "Ġrevocada": 7305,
      "Ġsabemos": 7306,
      "Ġreportan": 7307,
      "mart": 7308,
      "ĠpermitirÃŃa": 7309,
      "ĠanidaciÃ³n": 7310,
      "Ġanidamiento": 7311,
      "Ġterminado": 7312,
      "Ġajusto": 7313,
      "Ġcracking": 7314,
      "Ġdenotada": 7315,
      "Ġprohibida": 7316,
      "Ġconflicto": 7317,
      "Ġdesglosar": 7318,
      "ĠanomalÃŃas": 7319,
      "Ġreflejen": 7320,
      "Ġreflejado": 7321,
      "equivale": 7322,
      "servicio": 7323,
      "ĠsÃŃndro": 7324,
      "Ġnotifique": 7325,
      "ĠsistemÃ¡tico": 7326,
      "Ġmez": 7327,
      "Ġfallen": 7328,
      "ĠdesconexiÃ³n": 7329,
      "ĠclimÃ¡tica": 7330,
      "Ġapelado": 7331,
      "sesiÃ³n": 7332,
      "Ġoperador": 7333,
      "Ġoperadores": 7334,
      "Ġauthentication": 7335,
      "Ġdormido": 7336,
      "Ġsilenciado": 7337,
      "Ġinterfaz": 7338,
      "custom": 7339,
      "ĠRelacionar": 7340,
      "Ġdescargaste": 7341,
      "ĠnecesitarÃ¡s": 7342,
      "ĠpeticiÃ³n": 7343,
      "Ġtickets": 7344,
      "Ġreembolso": 7345,
      "ĠReleamos": 7346,
      "Ġcontenedor": 7347,
      "Ġpreventiva": 7348,
      "Ġsometerla": 7349,
      "circuit": 7350,
      "ĠmembresÃŃa": 7351,
      "Ġwheel": 7352,
      "Ġprepared": 7353,
      "Ġstatements": 7354,
      "ĠcardÃŃaca": 7355,
      "ĠsÃŃndrome": 7356,
      ")?": 7357,
      "Dump": 7358,
      "Fi": 7359,
      "MZ": 7360,
      "Par": 7361,
      "RM": 7362,
      "condicional": 7363,
      "call": 7364,
      "ejo": 7365,
      "far": 7366,
      "fund": 7367,
      "ila": 7368,
      "mic": 7369,
      "pes": 7370,
      "ur": 7371,
      "uros": 7372,
      "vch": 7373,
      "yp": 7374,
      "Ġedad": 7375,
      "Ġeuros": 7376,
      "Ġsvch": 7377,
      "cida": 7378,
      "onment": 7379,
      "Ã³xico": 7380,
      "Ġdetener": 7381,
      "inv": 7382,
      "Ġtum": 7383,
      "ĠtÃ³xico": 7384,
      "ork": 7385,
      "orden": 7386,
      "taste": 7387,
      "tafo": 7388,
      "Ġnulo": 7389,
      "dada": 7390,
      "Ġml": 7391,
      "Ġmil": 7392,
      "ĠÂ¬;": 7393,
      "Ġcomi": 7394,
      "Ġcohor": 7395,
      "ĠEli": 7396,
      "Ġestrecha": 7397,
      "Ġbio": 7398,
      "revis": 7399,
      "request": 7400,
      "refund": 7401,
      "ĠhÃŃ": 7402,
      "Ġentry": 7403,
      "Ġinser": 7404,
      "Ġinseguro": 7405,
      "ulares": 7406,
      "Ġcubra": 7407,
      "madas": 7408,
      "ĠSer": 7409,
      "utar": 7410,
      "mplementa": 7411,
      "Ġportafo": 7412,
      "ironment": 7413,
      "alizÃ³": 7414,
      "mizaciÃ³n": 7415,
      "Ġdesen": 7416,
      "Ġwelcome": 7417,
      "ĠDMZ": 7418,
      "estone": 7419,
      "Ġmotivo": 7420,
      "luciones": 7421,
      "Ġpotente": 7422,
      "gues": 7423,
      "itamos": 7424,
      "...'),": 7425,
      "Ġdisputas": 7426,
      "hael": 7427,
      "Ġpresi": 7428,
      "Ġaprov": 7429,
      "Ã±ana": 7430,
      "ĠmaÃ±ana": 7431,
      "Ġmoderada": 7432,
      "Ġroles": 7433,
      "ĠtÃ©cnicos": 7434,
      "ĠÃ©tica": 7435,
      "Ġfuncional": 7436,
      "Ġconjuntivas": 7437,
      "ĠejecutÃ³": 7438,
      "ĠsimultÃ¡neas": 7439,
      "ĠNueva": 7440,
      "Ġprograme": 7441,
      "Ġtotales": 7442,
      "Ġenvironment": 7443,
      "Ġalcanzar": 7444,
      "Ġfuncionamiento": 7445,
      "ĠactualizÃ³": 7446,
      "Ġlegales": 7447,
      "Ġtransmi": 7448,
      "ĠvacÃŃa": 7449,
      "Ġlibera": 7450,
      "Ġvisual": 7451,
      "Ġsesgos": 7452,
      "Ġshadowing": 7453,
      "Ġoffside": 7454,
      "Ġrenueva": 7455,
      "ĠrepresentarÃ©": 7456,
      "Ġmencionados": 7457,
      "Ġguard": 7458,
      "Ġsuperuser": 7459,
      "brido": 7460,
      "trial": 7461,
      "plotar": 7462,
      "Ġdiversificado": 7463,
      "Ġmanipule": 7464,
      "Ġextrema": 7465,
      "Ġimposibilidad": 7466,
      "Ġnombres": 7467,
      "Ġsalir": 7468,
      "Ġsincroniza": 7469,
      "Ġwarfar": 7470,
      "ĠharÃŃa": 7471,
      "Ġderivadas": 7472,
      "Ġpresentan": 7473,
      "Ġsobres": 7474,
      "ĠprÃ³xim": 7475,
      "Ġintentan": 7476,
      "Logra": 7477,
      "Ġinteractu": 7478,
      "Ġaplicarse": 7479,
      "ĠidÃ©nticos": 7480,
      "Ġseleccionado": 7481,
      "Ġajusta": 7482,
      "Ġllamadas": 7483,
      "ĠOAEP": 7484,
      "ĠsintÃ¡c": 7485,
      "holder": 7486,
      "Ġrazones": 7487,
      "Ġrecuperar": 7488,
      "horro": 7489,
      "Ġdesactualizado": 7490,
      "activar": 7491,
      "Ġplaceholder": 7492,
      "ĠReconstruyo": 7493,
      "Ġbusiness": 7494,
      "Ġimpiden": 7495,
      "ĠCarmic": 7496,
      "Ġciegas": 7497,
      "Ġdividirse": 7498,
      "Dumpear": 7499,
      "Ġsvchost": 7500,
      "Ġtumor": 7501,
      "Ġmilestone": 7502,
      "Ġcohorte": 7503,
      "Ġestrechamente": 7504,
      "ĠhÃŃbrido": 7505,
      "Ġinsertar": 7506,
      "mplementamos": 7507,
      "Ġportafolio": 7508,
      "Ġwarfarina": 7509,
      "ĠprÃ³ximas": 7510,
      "ĠCarmichael": 7511,
      "\"'.": 7512,
      "%.": 7513,
      "AD": 7514,
      "CPU": 7515,
      "Error": 7516,
      "Hub": 7517,
      "LL": 7518,
      "MIN": 7519,
      "SY": 7520,
      "UE": 7521,
      "ULL": 7522,
      "]',": 7523,
      "fis": 7524,
      "ides": 7525,
      "ky": 7526,
      "ocor": 7527,
      "ocente": 7528,
      "ticos": 7529,
      "vado": 7530,
      "wnt": 7531,
      "Ġ)).": 7532,
      "Ġ...'": 7533,
      "Ġstic": 7534,
      "Ã³lico": 7535,
      "ertura": 7536,
      "ervi": 7537,
      "ĠâĪª": 7538,
      "ĠâĪļ": 7539,
      "ueÃ±o": 7540,
      "Ġtru": 7541,
      "tambiÃ©n": 7542,
      "ass": 7543,
      "Ġbic": 7544,
      "Ġenteros": 7545,
      "Ġinocente": 7546,
      "))'.": 7547,
      "ques": 7548,
      "Ġimplicando": 7549,
      "Ġdup": 7550,
      "ĠSI": 7551,
      "dicados": 7552,
      "acente": 7553,
      "dados": 7554,
      "notificaciÃ³n": 7555,
      "Ġapunte": 7556,
      "Ġapertura": 7557,
      "bier": 7558,
      "biles": 7559,
      "sted": 7560,
      "Ġfortal": 7561,
      "verificaciÃ³n": 7562,
      "Ġfijo": 7563,
      "Ġ120": 7564,
      "comple": 7565,
      "Ġmayori": 7566,
      "Ġseguido": 7567,
      "Ġcapturas": 7568,
      "Ġ410": 7569,
      "Ġbases": 7570,
      "cionable": 7571,
      "Ġsubsan": 7572,
      "ipping": 7573,
      "Ġasiento": 7574,
      "Ġinvesti": 7575,
      "ĠMi": 7576,
      "Ġabs": 7577,
      "Ġdownt": 7578,
      "Ġtiro": 7579,
      "ĠNULL": 7580,
      "Ġsancionable": 7581,
      "Ġrepresentados": 7582,
      "Ġhol": 7583,
      "Ġagrupadas": 7584,
      "Ġalcanzan": 7585,
      "Ġmonitorea": 7586,
      "Ġnegadas": 7587,
      "Ġexacta": 7588,
      "Ġopuestos": 7589,
      "Ġrelaja": 7590,
      "ĠJuntas": 7591,
      "proviene": 7592,
      "proposi": 7593,
      "debes": 7594,
      "Ġrenueve": 7595,
      "ĠenviarÃ¡": 7596,
      "Ġdesactivar": 7597,
      "Ġexponente": 7598,
      "Ġ[((Â¬": 7599,
      "Ġejerci": 7600,
      "carrito": 7601,
      "Ġrestringida": 7602,
      "pone": 7603,
      "pongo": 7604,
      "Ġexistente": 7605,
      "ĠseÃ±ales": 7606,
      "Ġestrictamente": 7607,
      "Ġnaturalmente": 7608,
      "Ġgobier": 7609,
      "Ġinsuficiente": 7610,
      "Ġderivada": 7611,
      "ĠPropongo": 7612,
      "ticoides": 7613,
      "Ġdenoto": 7614,
      "Ġjobs": 7615,
      "Ġanticoagulante": 7616,
      "Ġapropiados": 7617,
      "Ġcustodio": 7618,
      "Debemos": 7619,
      "Ġdistribuido": 7620,
      "Ġindividuo": 7621,
      "Ġdejamos": 7622,
      "Ġtolerancia": 7623,
      "Ġambient": 7624,
      "Ġutilitaris": 7625,
      "ĠAsumimos": 7626,
      "Ġ[Â¬((": 7627,
      "ĠengaÃ±o": 7628,
      "ĠRefino": 7629,
      "abortar": 7630,
      "ĠReinterpreto": 7631,
      "Ġimpidan": 7632,
      "Ġfron": 7633,
      "Ġencriptado": 7634,
      "Ġresumen": 7635,
      "balanceador": 7636,
      "Ġglucocor": 7637,
      "deshabilitado": 7638,
      "Ġhipofis": 7639,
      "Ġrevela": 7640,
      "mentiroso": 7641,
      "Ġsatisfagan": 7642,
      "ĠReconocer": 7643,
      "ĠgenÃ©rico": 7644,
      "ADMIN": 7645,
      "SYS": 7646,
      "Ġsticky": 7647,
      "Ġtrusted": 7648,
      "Ġfortaleza": 7649,
      "Ġdowntime": 7650,
      "Ġglucocorticoides": 7651,
      "Ġhipofisario": 7652,
      "\",": 7653,
      "DOACs": 7654,
      "For": 7655,
      "VV": 7656,
      "XT": 7657,
      "auto": 7658,
      "agent": 7659,
      "biendo": 7660,
      "darse": 7661,
      "ev": 7662,
      "ges": 7663,
      "id": 7664,
      "nimidad": 7665,
      "otros": 7666,
      "rendi": 7667,
      "ure": 7668,
      "xtures": 7669,
      "Ġcerc": 7670,
      "esca": 7671,
      "Ġdeduce": 7672,
      "Ġdetenga": 7673,
      "icros": 7674,
      "Ġcontener": 7675,
      "ĠconversiÃ³n": 7676,
      "endencia": 7677,
      "orÃŃas": 7678,
      "ecau": 7679,
      "dac": 7680,
      "day": 7681,
      "rate": 7682,
      "ramos": 7683,
      "Ġmicros": 7684,
      "Ġprecau": 7685,
      "Ġferi": 7686,
      "Ġunanimidad": 7687,
      "cione": 7688,
      "Ġcol": 7689,
      "Ġcondiciona": 7690,
      "Ġur": 7691,
      "Ġreinci": 7692,
      "arizadas": 7693,
      "Ġhura": 7694,
      "ÃŃe": 7695,
      "Ġdigamos": 7696,
      "ritable": 7697,
      "riday": 7698,
      "lint": 7699,
      "uncia": 7700,
      "ugÃŃa": 7701,
      "Ġdiscur": 7702,
      "Ġdisco": 7703,
      "view": 7704,
      "Ġsegmentos": 7705,
      "ĠCus": 7706,
      "ĠCVV": 7707,
      "mitido": 7708,
      "Ġexplici": 7709,
      "Ġaprendi": 7710,
      "ĠatÃ³micos": 7711,
      "Ġestaba": 7712,
      "Ġestand": 7713,
      "sobre": 7714,
      "ĠinterÃ©s": 7715,
      "Ġdefiniendo": 7716,
      "ajes": 7717,
      "Ġrepeti": 7718,
      "blece": 7719,
      "Ġfixtures": 7720,
      "ivamente": 7721,
      "Ġrecar": 7722,
      "count": 7723,
      "ĠThread": 7724,
      "ĠTXT": 7725,
      "ĠobstÃ¡": 7726,
      "Ã©ndose": 7727,
      "mÃ¡tica": 7728,
      "enticaciÃ³n": 7729,
      "Ġanidado": 7730,
      "Ġmaxim": 7731,
      "Ġmodelo": 7732,
      "Ġverifican": 7733,
      "upgrade": 7734,
      "ĠMo": 7735,
      "canados": 7736,
      "endan": 7737,
      "Ġcreado": 7738,
      "Ġcrecimiento": 7739,
      "certificado": 7740,
      "ĠenvÃŃe": 7741,
      "ĠcirugÃŃa": 7742,
      "Ġbanear": 7743,
      "Ġasignados": 7744,
      "ejecu": 7745,
      "Ġrequeridas": 7746,
      "Ġhumana": 7747,
      "Ġreintente": 7748,
      "Ġescalada": 7749,
      "cuenta": 7750,
      "Ġevitan": 7751,
      "disp": 7752,
      "Ġreparado": 7753,
      "Ġencontramos": 7754,
      "Ġredundantes": 7755,
      "ducirÃ¡": 7756,
      "ĠespecificaciÃ³n": 7757,
      "brimiento": 7758,
      "Ġcausar": 7759,
      "ĠdeautenticaciÃ³n": 7760,
      "search": 7761,
      "Ġnotarizado": 7762,
      "Ġesperan": 7763,
      "Ġgarantizada": 7764,
      "ĠquiÃ©n": 7765,
      "Ġ...).": 7766,
      "ĠoptimizaciÃ³n": 7767,
      "ĠinfecciÃ³n": 7768,
      "Ġocurrido": 7769,
      "Ġevade": 7770,
      "Ġsincronizada": 7771,
      "Ġreprocesamiento": 7772,
      "fallas": 7773,
      "bypass": 7774,
      "Ġconstituido": 7775,
      "Ġvotan": 7776,
      "ĠEstructuro": 7777,
      "Ġsignificar": 7778,
      "Ġsubredes": 7779,
      "Ġfactorizable": 7780,
      "Ġbooleano": 7781,
      "Ġvisibilidad": 7782,
      "Ġrecupere": 7783,
      "Ġutilizados": 7784,
      "Ġconcepto": 7785,
      "ĠantibiÃ³ticos": 7786,
      "ĠAccount": 7787,
      "Ġinconsistentes": 7788,
      "Ġdetallados": 7789,
      "Ġbacteriano": 7790,
      "ĠanÃ³mala": 7791,
      "ĠbotÃ³n": 7792,
      "Ġatributo": 7793,
      "ĠasÃŃncrona": 7794,
      "Ġdescentralizado": 7795,
      "ĠsecreciÃ³n": 7796,
      "ĠPermiso": 7797,
      "Ġdevolver": 7798,
      "jugador": 7799,
      "Ġcercano": 7800,
      "Ġmicroservi": 7801,
      "Ġferiado": 7802,
      "Ġreincidente": 7803,
      "Ġhuracanados": 7804,
      "ĠCushing": 7805,
      "Ġaprendizaje": 7806,
      "Ġestandarizadas": 7807,
      "Ġmaximice": 7808,
      "ejecuciÃ³n": 7809,
      "22": 7810,
      "MI": 7811,
      "Neces": 7812,
      "NTO": 7813,
      "]<|": 7814,
      "ap": 7815,
      "brado": 7816,
      "beat": 7817,
      "clo": 7818,
      "ees": 7819,
      "efec": 7820,
      "implementamos": 7821,
      "ld": 7822,
      "llas": 7823,
      "longitud": 7824,
      "mon": 7825,
      "mÃ©": 7826,
      "ote": 7827,
      "tructura": 7828,
      "tbeat": 7829,
      "yacente": 7830,
      "cimo": 7831,
      "Ġcali": 7832,
      "erti": 7833,
      "erva": 7834,
      "esidad": 7835,
      "inRM": 7836,
      "Ġtreint": 7837,
      "engen": 7838,
      "dificar": 7839,
      "Ġmuer": 7840,
      "entarÃ¡": 7841,
      "Ġenca": 7842,
      "Ġlin": 7843,
      "Ġvir": 7844,
      "Ġparecer": 7845,
      "ĠES": 7846,
      "ĠETH": 7847,
      "Ġnote": 7848,
      "Ġreestructura": 7849,
      "ticidad": 7850,
      "anes": 7851,
      "Ġhear": 7852,
      "sivi": 7853,
      "Ã©cimo": 7854,
      "ÃŃdo": 7855,
      "ÃŃtimo": 7856,
      ")))))": 7857,
      "ĠEstructura": 7858,
      "ĠdueÃ±o": 7859,
      "ĠPOP": 7860,
      "Ġdise": 7861,
      "mante": 7862,
      "ĠSch": 7863,
      "Ġsuger": 7864,
      "Ġacerti": 7865,
      "Ġlobb": 7866,
      "liz": 7867,
      "Ġserv": 7868,
      "egado": 7869,
      "tran": 7870,
      "traje": 7871,
      "Ġusas": 7872,
      "acaciones": 7873,
      "ceder": 7874,
      "ĠCor": 7875,
      "forman": 7876,
      "Ġcamino": 7877,
      "ĠDoS": 7878,
      "Ġgame": 7879,
      "Ġperforman": 7880,
      "Ġexcedan": 7881,
      "Ġresete": 7882,
      "Ġrole": 7883,
      "Ġroote": 7884,
      "teralmente": 7885,
      "terio": 7886,
      "usa": 7887,
      "Ġataques": 7888,
      "Ġcompras": 7889,
      "ĠdepÃ³sito": 7890,
      "Ġdispar": 7891,
      "Ġaplicaciones": 7892,
      "Ġcontrasta": 7893,
      "Ġmantendremos": 7894,
      "misa": 7895,
      "Ġdeployarse": 7896,
      "Ġaprobaciones": 7897,
      ")]).": 7898,
      "Ġsubproposi": 7899,
      "Ġsubyacente": 7900,
      "etc": 7901,
      "Ġliteral": 7902,
      "itice": 7903,
      "Ġconfiguradas": 7904,
      "Ġmarcar": 7905,
      "Ġprocesados": 7906,
      "Ġsimplificamos": 7907,
      "ĠAsignÃ©mosle": 7908,
      "Ġrecoger": 7909,
      "Ġsanitice": 7910,
      "Ġbypasseas": 7911,
      "Ġlanzan": 7912,
      "Ġagruparse": 7913,
      "Ġabordas": 7914,
      "Ġabordes": 7915,
      "Ġescrita": 7916,
      "Ġescriba": 7917,
      "Ġiniciado": 7918,
      "early": 7919,
      "Ġprogramada": 7920,
      "Ġexplotarla": 7921,
      "Ġpartir": 7922,
      "Ġ)?": 7923,
      "Ġanulando": 7924,
      "Ġexclusivi": 7925,
      "Ġhabido": 7926,
      "Ġsaltarse": 7927,
      "Ġefectivas": 7928,
      "ĠcontinuaciÃ³n": 7929,
      "Ġfirmar": 7930,
      "Ġlleve": 7931,
      "Ġlicencias": 7932,
      "obtener": 7933,
      "Ġencuentres": 7934,
      "Ġrealista": 7935,
      "Ġutilizando": 7936,
      "Ġleerse": 7937,
      "Ġreescribe": 7938,
      "Ġcancelaciones": 7939,
      "Ġdevops": 7940,
      "Ġguardianes": 7941,
      "Ġcontrolador": 7942,
      "Ġrevertir": 7943,
      "Ġsys": 7944,
      "Ġnaturalidad": 7945,
      "Ġcriticidad": 7946,
      "Ġcriterio": 7947,
      "Ġquintos": 7948,
      "Ġanidadas": 7949,
      "Ġmanejable": 7950,
      "Ã¡ndolo": 7951,
      "Explotar": 7952,
      "Ġdiamante": 7953,
      "Ġpenalty": 7954,
      "ĠanticoagulaciÃ³n": 7955,
      "legÃŃtimo": 7956,
      "Ġlimpi": 7957,
      "Ġarbitraje": 7958,
      "incluye": 7959,
      "Ġdenuncia": 7960,
      "Podremos": 7961,
      "trucciÃ³n": 7962,
      "Ġreinicios": 7963,
      "ĠmÃ³viles": 7964,
      "Ġreconocimiento": 7965,
      "Ġadversativo": 7966,
      "Ġhardening": 7967,
      "Ġinterceptado": 7968,
      "detecte": 7969,
      "ĠEstÃ¡ndar": 7970,
      "Ġotorga": 7971,
      "ĠmanejarÃ¡": 7972,
      "ĠNecesitamos": 7973,
      "Ġneto": 7974,
      "Ġbuena": 7975,
      "ĠcontinuarÃ¡": 7976,
      "ĠclÃŃnica": 7977,
      "ĠclÃŃnico": 7978,
      "ĠcartId": 7979,
      "Ġlocales": 7980,
      "Ġinvitado": 7981,
      "popularidad": 7982,
      "Ġignore": 7983,
      "ĠdetectÃ³": 7984,
      "Ġempaquetado": 7985,
      "Ġimprime": 7986,
      "tampering": 7987,
      "Ġdesempatar": 7988,
      "ĠElegirÃ©": 7989,
      "Incluso": 7990,
      "Ġeventualmente": 7991,
      "ondicionalidad": 7992,
      "Ġmapeados": 7993,
      "Ġcomillas": 7994,
      "Ġdesenca": 7995,
      "Ġinteractuado": 7996,
      "Ġbicondicionalidad": 7997,
      "Ġsubsanado": 7998,
      "mÃ©trica": 7999
    },
    "merges": [
      [
        "Ġ",
        "e"
      ],
      [
        "Ġ",
        "s"
      ],
      [
        "c",
        "i"
      ],
      [
        "d",
        "e"
      ],
      [
        "Ġ",
        "c"
      ],
      [
        "o",
        "n"
      ],
      [
        "Ġ",
        "â"
      ],
      [
        "Ġ",
        "p"
      ],
      [
        "l",
        "a"
      ],
      [
        "Ã",
        "³"
      ],
      [
        "n",
        "t"
      ],
      [
        "Ġe",
        "s"
      ],
      [
        "a",
        "r"
      ],
      [
        "e",
        "r"
      ],
      [
        "e",
        "s"
      ],
      [
        "Ġ",
        "("
      ],
      [
        "Ġ",
        "a"
      ],
      [
        "Ġ",
        "de"
      ],
      [
        "u",
        "n"
      ],
      [
        "Ġâ",
        "Ī"
      ],
      [
        "o",
        "s"
      ],
      [
        "u",
        "e"
      ],
      [
        "Ġ",
        "q"
      ],
      [
        "Ã³",
        "n"
      ],
      [
        "Ġ",
        "'"
      ],
      [
        "i",
        "c"
      ],
      [
        "ci",
        "Ã³n"
      ],
      [
        "Ġ",
        "la"
      ],
      [
        "Ġc",
        "on"
      ],
      [
        "ĠâĪ",
        "§"
      ],
      [
        "i",
        "n"
      ],
      [
        "a",
        "l"
      ],
      [
        "Ġ",
        "r"
      ],
      [
        "d",
        "o"
      ],
      [
        "Ġq",
        "ue"
      ],
      [
        "Ġe",
        "l"
      ],
      [
        "Ġ",
        "t"
      ],
      [
        "Ġ",
        "un"
      ],
      [
        "e",
        "n"
      ],
      [
        "ic",
        "a"
      ],
      [
        "d",
        "i"
      ],
      [
        "o",
        "r"
      ],
      [
        "Ã",
        "¡"
      ],
      [
        "t",
        "a"
      ],
      [
        "Ġs",
        "e"
      ],
      [
        "e",
        "c"
      ],
      [
        "Ġ",
        "n"
      ],
      [
        "d",
        "a"
      ],
      [
        "Ġâ",
        "Ĩ"
      ],
      [
        "Ġ",
        "y"
      ],
      [
        "Â",
        "¬"
      ],
      [
        "r",
        "a"
      ],
      [
        "Ġs",
        "i"
      ],
      [
        "Ġ",
        "m"
      ],
      [
        "m",
        "p"
      ],
      [
        "e",
        "nt"
      ],
      [
        "t",
        "o"
      ],
      [
        "Ġp",
        "r"
      ],
      [
        "Ġe",
        "n"
      ],
      [
        "ĠâĨ",
        "Ĵ"
      ],
      [
        "Ġ",
        "f"
      ],
      [
        "Ġun",
        "a"
      ],
      [
        "Ġ",
        "l"
      ],
      [
        "Ġ",
        "v"
      ],
      [
        "mp",
        "l"
      ],
      [
        "Ġ",
        "Â¬"
      ],
      [
        "ci",
        "on"
      ],
      [
        "Ġc",
        "o"
      ],
      [
        ")",
        "."
      ],
      [
        "Ġp",
        "ar"
      ],
      [
        "Ġ",
        "i"
      ],
      [
        "<",
        "|"
      ],
      [
        "|",
        ">"
      ],
      [
        "Ġcon",
        "di"
      ],
      [
        "ent",
        "e"
      ],
      [
        "t",
        "e"
      ],
      [
        "Ġ",
        "E"
      ],
      [
        "Ġes",
        "t"
      ],
      [
        "Ġn",
        "o"
      ],
      [
        "m",
        "o"
      ],
      [
        "Ġ",
        "u"
      ],
      [
        "Ġ",
        "o"
      ],
      [
        "ĠâĪ",
        "¨"
      ],
      [
        "Ġ",
        "L"
      ],
      [
        "Ġr",
        "e"
      ],
      [
        "t",
        "i"
      ],
      [
        "a",
        "s"
      ],
      [
        "a",
        "do"
      ],
      [
        "a",
        "n"
      ],
      [
        "ar",
        "i"
      ],
      [
        "Ġ",
        "b"
      ],
      [
        "cion",
        "es"
      ],
      [
        "r",
        "e"
      ],
      [
        "l",
        "o"
      ],
      [
        "Ġpr",
        "o"
      ],
      [
        "ĠL",
        "a"
      ],
      [
        "Ġ",
        "h"
      ],
      [
        "'",
        "."
      ],
      [
        "Ġe",
        "nt"
      ],
      [
        "c",
        "es"
      ],
      [
        "Ġ",
        "in"
      ],
      [
        "s",
        "i"
      ],
      [
        "Ã",
        "©"
      ],
      [
        "Ã",
        "Ń"
      ],
      [
        ".",
        "."
      ],
      [
        "Ġ",
        "A"
      ],
      [
        "Ġe",
        "x"
      ],
      [
        "u",
        "la"
      ],
      [
        "r",
        "o"
      ],
      [
        "m",
        "ente"
      ],
      [
        "un",
        "ciÃ³n"
      ],
      [
        ")",
        ")"
      ],
      [
        "er",
        "o"
      ],
      [
        "os",
        "i"
      ],
      [
        "Ġco",
        "mo"
      ],
      [
        "on",
        "ces"
      ],
      [
        "Ġi",
        "mpl"
      ],
      [
        "'",
        ","
      ],
      [
        "i",
        "f"
      ],
      [
        "Ġcondi",
        "ciÃ³n"
      ],
      [
        "Ġc",
        "u"
      ],
      [
        "ĠE",
        "s"
      ],
      [
        "e",
        "l"
      ],
      [
        "q",
        "u"
      ],
      [
        "Ġent",
        "onces"
      ],
      [
        "Ġla",
        "s"
      ],
      [
        "Ġimpl",
        "ica"
      ],
      [
        "m",
        "b"
      ],
      [
        "Ã¡",
        "s"
      ],
      [
        "m",
        "ula"
      ],
      [
        "Ġ",
        "d"
      ],
      [
        "ari",
        "o"
      ],
      [
        "Ġh",
        "a"
      ],
      [
        "er",
        "a"
      ],
      [
        "ec",
        "es"
      ],
      [
        "Ġ",
        "P"
      ],
      [
        "Ġpar",
        "a"
      ],
      [
        "Ġest",
        "Ã¡"
      ],
      [
        "t",
        "u"
      ],
      [
        "Ġpro",
        "p"
      ],
      [
        "Ġn",
        "eces"
      ],
      [
        "Ġm",
        "en"
      ],
      [
        "Ġcon",
        "j"
      ],
      [
        "Ġv",
        "er"
      ],
      [
        "u",
        "c"
      ],
      [
        "de",
        "m"
      ],
      [
        "Ġ",
        "di"
      ],
      [
        "m",
        "a"
      ],
      [
        "i",
        "s"
      ],
      [
        "Ġprop",
        "osi"
      ],
      [
        "r",
        "i"
      ],
      [
        "s",
        "e"
      ],
      [
        "Ġ",
        "S"
      ],
      [
        "Ġ(",
        "("
      ],
      [
        "Ġa",
        "l"
      ],
      [
        "Ġs",
        "u"
      ],
      [
        "u",
        "t"
      ],
      [
        "ti",
        "v"
      ],
      [
        "mpl",
        "e"
      ],
      [
        "Ġconj",
        "unciÃ³n"
      ],
      [
        "Ġa",
        "c"
      ],
      [
        "al",
        "i"
      ],
      [
        "dem",
        "Ã¡s"
      ],
      [
        "Ġ",
        "<|"
      ],
      [
        "qu",
        "i"
      ],
      [
        "Ġl",
        "o"
      ],
      [
        "Ġs",
        "o"
      ],
      [
        "l",
        "i"
      ],
      [
        "ĠâĨ",
        "Ķ"
      ],
      [
        "l",
        "e"
      ],
      [
        "Ġ",
        "="
      ],
      [
        "i",
        "en"
      ],
      [
        "Ġmen",
        "os"
      ],
      [
        "if",
        "ic"
      ],
      [
        "de",
        "nt"
      ],
      [
        "Ġ(",
        "Â¬"
      ],
      [
        "m",
        "os"
      ],
      [
        "Ġcondi",
        "ciones"
      ],
      [
        "ĠEs",
        "to"
      ],
      [
        "d",
        "ica"
      ],
      [
        ")",
        ","
      ],
      [
        "Ġimplica",
        "ciÃ³n"
      ],
      [
        "un",
        "ci"
      ],
      [
        "i",
        "m"
      ],
      [
        "Ġen",
        "unci"
      ],
      [
        "Ġenunci",
        "ado"
      ],
      [
        "Ġver",
        "da"
      ],
      [
        "Ġde",
        "l"
      ],
      [
        "Ġs",
        "er"
      ],
      [
        "e",
        "g"
      ],
      [
        "g",
        "o"
      ],
      [
        "Ġin",
        "dica"
      ],
      [
        "Ġp",
        "or"
      ],
      [
        "a",
        "nt"
      ],
      [
        "Ġf",
        "al"
      ],
      [
        "..",
        "."
      ],
      [
        "t",
        "ra"
      ],
      [
        "Ġverda",
        "de"
      ],
      [
        "i",
        "r"
      ],
      [
        "an",
        "do"
      ],
      [
        "Ġu",
        "s"
      ],
      [
        "tu",
        "ra"
      ],
      [
        "Ġi",
        "nt"
      ],
      [
        "u",
        "g"
      ],
      [
        "Ġha",
        "y"
      ],
      [
        "Ġde",
        "b"
      ],
      [
        "a",
        "c"
      ],
      [
        "cion",
        "al"
      ],
      [
        "ci",
        "a"
      ],
      [
        "Ã³",
        "r"
      ],
      [
        "Ġ(",
        "â"
      ],
      [
        "da",
        "d"
      ],
      [
        "Ġpar",
        "te"
      ],
      [
        "Ġ",
        "I"
      ],
      [
        "ar",
        "a"
      ],
      [
        "a",
        "ciÃ³n"
      ],
      [
        "Ġso",
        "lo"
      ],
      [
        "Ġp",
        "ue"
      ],
      [
        "c",
        "e"
      ],
      [
        "Ġdi",
        "s"
      ],
      [
        "r",
        "es"
      ],
      [
        "Ġl",
        "os"
      ],
      [
        "v",
        "i"
      ],
      [
        "Ã",
        "º"
      ],
      [
        "E",
        "l"
      ],
      [
        "q",
        "ue"
      ],
      [
        "Ã³r",
        "mula"
      ],
      [
        "Ã³",
        "g"
      ],
      [
        "ali",
        "z"
      ],
      [
        "Ġse",
        "g"
      ],
      [
        "Ġl",
        "Ã³g"
      ],
      [
        "Ã¡",
        "to"
      ],
      [
        "Ġf",
        "Ã³rmula"
      ],
      [
        "Ġ",
        "C"
      ],
      [
        "m",
        "i"
      ],
      [
        "Ġco",
        "mple"
      ],
      [
        "Ġa",
        "demÃ¡s"
      ],
      [
        "Ġde",
        "s"
      ],
      [
        "Ġse",
        "a"
      ],
      [
        "b",
        "le"
      ],
      [
        "h",
        "o"
      ],
      [
        "ec",
        "ta"
      ],
      [
        "f",
        "in"
      ],
      [
        "Ġex",
        "p"
      ],
      [
        "t",
        "os"
      ],
      [
        "n",
        "o"
      ],
      [
        "Ġ",
        "Ã¡to"
      ],
      [
        "ec",
        "e"
      ],
      [
        "Ġp",
        "ero"
      ],
      [
        "dent",
        "ific"
      ],
      [
        "ĠlÃ³g",
        "ica"
      ],
      [
        "Ġproposi",
        "ciÃ³n"
      ],
      [
        "t",
        "or"
      ],
      [
        "ĠI",
        "dentific"
      ],
      [
        "f",
        "or"
      ],
      [
        "Ġ",
        "w"
      ],
      [
        "d",
        "uc"
      ],
      [
        "Ġc",
        "a"
      ],
      [
        "Ġac",
        "tiv"
      ],
      [
        "Ġp",
        "a"
      ],
      [
        "Ġpue",
        "de"
      ],
      [
        "c",
        "u"
      ],
      [
        "Ġ",
        "D"
      ],
      [
        "Ġneces",
        "ario"
      ],
      [
        "Ġa",
        "p"
      ],
      [
        "Ġt",
        "o"
      ],
      [
        "Ġpr",
        "im"
      ],
      [
        "Ġ",
        "g"
      ],
      [
        "ien",
        "e"
      ],
      [
        "ug",
        "h"
      ],
      [
        "Ġa",
        "nt"
      ],
      [
        "Ġus",
        "u"
      ],
      [
        "ĠE",
        "l"
      ],
      [
        "un",
        "da"
      ],
      [
        "n",
        "aliz"
      ],
      [
        "r",
        "uc"
      ],
      [
        "p",
        "ut"
      ],
      [
        "Ġd",
        "os"
      ],
      [
        "da",
        "s"
      ],
      [
        "Ġp",
        "er"
      ],
      [
        "di",
        "cional"
      ],
      [
        "Ġe",
        "qui"
      ],
      [
        "for",
        "mula"
      ],
      [
        "Ġdeb",
        "e"
      ],
      [
        "Ġa",
        "t"
      ],
      [
        "er",
        "e"
      ],
      [
        "t",
        "ho"
      ],
      [
        "es",
        "t"
      ],
      [
        "č",
        "Ċ"
      ],
      [
        "ĠA",
        "naliz"
      ],
      [
        "ĠÂ¬",
        "("
      ],
      [
        "in",
        "put"
      ],
      [
        "b",
        "os"
      ],
      [
        "e",
        "os"
      ],
      [
        "|>",
        "<|"
      ],
      [
        "ugh",
        "t"
      ],
      [
        "tho",
        "ught"
      ],
      [
        "Ġm",
        "o"
      ],
      [
        "in",
        "g"
      ],
      [
        "ruc",
        "tura"
      ],
      [
        "Ã³",
        "m"
      ],
      [
        "Ġest",
        "ructura"
      ],
      [
        "Ġat",
        "Ã³m"
      ],
      [
        "Ġcu",
        "ando"
      ],
      [
        "Ġverdade",
        "ro"
      ],
      [
        "Ġusu",
        "ario"
      ],
      [
        "ĠatÃ³m",
        "ica"
      ],
      [
        "d",
        "os"
      ],
      [
        "Ġprim",
        "era"
      ],
      [
        "ent",
        "o"
      ],
      [
        "ci",
        "r"
      ],
      [
        "in",
        "al"
      ],
      [
        "Ġneces",
        "ari"
      ],
      [
        "ic",
        "o"
      ],
      [
        "Ġt",
        "iene"
      ],
      [
        "t",
        "es"
      ],
      [
        "Ġn",
        "eg"
      ],
      [
        "v",
        "al"
      ],
      [
        "in",
        "ci"
      ],
      [
        "Ġest",
        "Ã©"
      ],
      [
        "Ġseg",
        "unda"
      ],
      [
        "Ġproposi",
        "ciones"
      ],
      [
        "y",
        "unciÃ³n"
      ],
      [
        "b",
        "i"
      ],
      [
        "f",
        "i"
      ],
      [
        "t",
        "en"
      ],
      [
        "s",
        "te"
      ],
      [
        "if",
        "ica"
      ],
      [
        "Ġdis",
        "yunciÃ³n"
      ],
      [
        "Ġcomple",
        "ta"
      ],
      [
        "Ġ(â",
        "Ī"
      ],
      [
        "u",
        "l"
      ],
      [
        "e",
        "a"
      ],
      [
        "Ġes",
        "ta"
      ],
      [
        "p",
        "al"
      ],
      [
        "Ġex",
        "ce"
      ],
      [
        "Ġfal",
        "la"
      ],
      [
        "Ġequi",
        "val"
      ],
      [
        "Ġde",
        "cir"
      ],
      [
        "l",
        "u"
      ],
      [
        "Ġpr",
        "inci"
      ],
      [
        "Ġprinci",
        "pal"
      ],
      [
        "ĠP",
        "ara"
      ],
      [
        "ste",
        "ma"
      ],
      [
        "Ġs",
        "on"
      ],
      [
        "s",
        "o"
      ],
      [
        "Ġcon",
        "s"
      ],
      [
        "nt",
        "e"
      ],
      [
        "Ġp",
        "as"
      ],
      [
        "Ġsi",
        "stema"
      ],
      [
        "Ġc",
        "la"
      ],
      [
        "on",
        "dicional"
      ],
      [
        "Ġt",
        "ra"
      ],
      [
        "ic",
        "ondicional"
      ],
      [
        "a",
        "y"
      ],
      [
        "Ġint",
        "er"
      ],
      [
        "Ġt",
        "en"
      ],
      [
        "ĠatÃ³mica",
        "s"
      ],
      [
        "Ġf",
        "ra"
      ],
      [
        "Ġr",
        "es"
      ],
      [
        ")",
        ")."
      ],
      [
        "Ġneg",
        "aciÃ³n"
      ],
      [
        "Ġc",
        "or"
      ],
      [
        "g",
        "i"
      ],
      [
        "t",
        "r"
      ],
      [
        "duc",
        "e"
      ],
      [
        "Ġb",
        "icondicional"
      ],
      [
        "Ġfra",
        "se"
      ],
      [
        "Ġnecesari",
        "a"
      ],
      [
        "t",
        "ar"
      ],
      [
        "ac",
        "k"
      ],
      [
        "ica",
        "mente"
      ],
      [
        "g",
        "a"
      ],
      [
        "Ġe",
        "mb"
      ],
      [
        "ant",
        "o"
      ],
      [
        "on",
        "de"
      ],
      [
        "Ġt",
        "anto"
      ],
      [
        "Ġemb",
        "ar"
      ],
      [
        "Ġ(â",
        "Ĩ"
      ],
      [
        "g",
        "n"
      ],
      [
        "Ġp",
        "o"
      ],
      [
        "Ã¡",
        "li"
      ],
      [
        "ĠD",
        "e"
      ],
      [
        "Ġembar",
        "go"
      ],
      [
        "p",
        "o"
      ],
      [
        "Ġexce",
        "p"
      ],
      [
        "Ġe",
        "j"
      ],
      [
        "Ġ",
        "B"
      ],
[...]
